Conv_41_param_0 12.018881 7.616636 1.789132 1.548040 2.517677 1.795662 9.943290 2.365317 1.525401 6.549970 1.773577 1.142622 2.469600 8.795995 8.883300 9.698043 5.522630 10.476971 5.569975 22.467758 2.397703 8.410238 7.296077 121.582954 8.756327 8.412269 1.786811 3.245686 41.243629 8.037812 9.552448 2.190153 
Conv_44_param_0 182.685867 462.689789 190.395538 292.654846 174.066879 210.052689 477.183563 226.030334 304.521118 314.232330 841.949524 407.664307 226.728745 231.418091 157.900330 600.344299 208.919647 179.359177 223.036102 187.671783 197.929367 390.262115 212.832626 186.091080 208.122650 130.679535 251.741516 234.522430 260.217468 183.921890 588.293274 550.678528 340.273956 405.492828 218.644699 203.416107 227.509995 226.068451 1047.325073 555.952087 407.936951 145.647675 291.788879 566.639893 317.532349 775.347778 292.495941 784.843567 222.683136 286.947723 385.820038 569.813782 278.299927 444.442017 486.611237 157.997650 289.543091 148.606064 1022.618713 228.062881 164.084778 530.011169 246.938110 210.860611 
Conv_47_param_0 1156.627563 1338.713135 356.273560 453.459595 714.095459 873.086121 650.064819 461.493378 520.572937 167.761017 243.448898 1113.853638 346.389282 347.020813 1069.881348 1509.972412 1202.682861 845.423401 449.741669 127.329147 1144.733276 422.743683 689.550903 835.857910 584.632324 227.753693 1026.932739 175.731613 1163.444580 1699.021729 703.361267 1060.773071 
Conv_50_param_0 84.263367 69.168015 73.200844 167.911621 79.662178 95.409248 81.024712 81.042755 43.835289 76.633179 100.297440 44.232388 33.947906 117.822411 28.080519 76.617531 86.696426 50.113373 150.030396 105.815720 161.996948 105.326668 118.845520 47.461491 98.426048 71.768150 56.160835 129.627350 109.375404 45.560722 72.323074 67.344170 
Conv_53_param_0 75.850655 36.973961 61.302773 62.523052 65.952644 94.122910 40.317421 37.052368 75.264626 46.891235 108.322388 54.920792 68.854744 60.577274 56.886486 42.876064 46.828766 75.864906 42.196579 46.849674 72.010330 40.538845 49.292934 33.733742 44.274616 87.434074 101.271080 91.413147 32.249474 94.046066 35.584312 54.910187 
Conv_57_param_0 645.468811 360.736603 234.762924 187.109802 255.809357 649.184631 230.042068 373.449615 240.959488 275.099579 175.441589 190.258347 255.929352 180.850815 218.098953 365.793610 155.102356 246.937195 354.318146 149.551178 152.103027 231.222717 384.839508 232.320557 219.891861 138.588928 285.905426 138.514374 217.141129 416.112000 223.372070 400.795166 
Conv_61_param_0 318.512360 230.527420 312.561218 284.209045 239.915894 228.492859 236.286758 167.021469 404.149994 320.201904 361.372101 228.343948 365.277649 419.265015 243.256790 192.175278 291.250824 378.511139 212.324005 190.456726 212.912338 333.957001 311.983734 237.092896 189.013290 292.520355 332.301666 237.105011 241.934143 438.847961 321.844482 354.059814 291.063324 256.361206 295.625061 271.962006 257.884430 275.429718 303.351471 181.922119 302.968475 94.189758 228.432083 243.740509 343.175659 242.331635 258.191315 132.986160 170.694427 278.808350 349.946411 158.773361 186.059814 265.084259 425.941528 214.800980 192.914276 327.114044 193.402908 193.784851 287.340729 374.655426 218.834946 188.367355 
Conv_64_param_0 661.403015 439.799286 1271.150146 594.996033 555.856506 883.892334 1314.480103 789.197021 1259.956909 1653.434937 554.713562 947.438354 562.194641 619.994019 531.417786 789.722595 673.743530 428.521637 617.159485 492.387024 502.659424 462.877014 794.322876 1402.736450 1023.714294 552.954285 611.557922 1259.311646 1022.639160 1589.354492 716.455811 646.903687 1771.379028 1058.687866 487.546173 774.353638 546.404358 665.334351 1093.156860 592.984436 1476.290771 947.939758 546.267517 590.352051 692.292236 609.052917 419.216553 1552.777710 1127.352905 383.237885 272.548401 811.992249 731.810669 1757.561035 625.855896 645.937012 757.916077 1594.498169 1041.647827 649.810242 826.041443 623.949524 467.664459 472.238251 562.030212 585.500732 504.197388 617.794983 826.898743 1219.245728 739.215088 395.987244 743.292725 632.429321 841.592651 741.068237 422.095093 550.777161 990.781433 515.422852 945.741211 1200.970215 694.382080 805.764404 674.106506 871.681030 1978.093750 871.901672 465.635925 1565.124146 1011.316284 802.208496 566.057434 853.951050 671.989868 794.526855 422.446899 585.624573 855.914734 930.954773 670.976562 577.702637 989.758118 491.523315 1040.950439 809.727783 1458.909912 641.503479 815.592407 1304.364502 1053.267944 865.811646 927.451416 383.974060 560.753784 730.901917 1044.129639 236.961563 741.817078 876.952637 792.186218 1198.968994 832.501770 833.133972 693.513367 565.772705 563.190918 605.632507 
Conv_67_param_0 307.809906 455.532990 235.378265 667.996216 669.742859 446.610474 153.935608 404.378052 530.009094 656.375977 641.210571 696.140381 602.559143 589.465820 772.786011 661.544067 453.241394 612.480164 500.741089 568.547852 509.568939 300.138367 612.901001 407.163666 354.397766 425.883881 521.644531 531.689087 371.018707 338.943024 653.143372 1047.622070 625.302612 340.931152 531.172852 301.864929 301.734802 229.093018 330.006012 548.306519 628.305969 819.796570 713.963867 483.169647 572.978394 340.903717 568.755188 612.457825 700.803833 428.633484 769.158630 764.768188 240.480087 429.949463 969.860046 565.442200 515.476746 652.187561 126.444603 627.402283 815.561951 219.949173 343.891510 580.824707 
Conv_70_param_0 64.258911 58.205456 83.716309 87.610909 45.017544 73.662895 123.754082 102.206108 81.259758 83.750648 64.339455 72.763832 64.003807 64.943573 47.220566 65.721886 96.987175 85.367149 81.887924 70.226471 38.363976 63.696644 78.589043 67.130478 99.301636 84.804955 56.632420 57.886753 98.634674 76.577431 71.960808 53.032108 120.087791 95.447586 94.012863 74.539917 89.454521 76.796577 54.179672 80.064758 69.407707 100.741798 68.436539 37.020386 77.460999 49.035378 79.337975 27.470768 69.406212 105.628281 320.207794 107.075478 67.880417 61.348602 46.075352 32.835266 117.629829 77.028137 103.213631 124.155136 64.097404 89.543327 79.775841 102.263138 
Conv_73_param_0 398.961517 280.216187 171.946060 130.581573 256.874573 123.461197 258.941833 167.300720 218.355591 233.744034 133.751450 341.026947 344.622131 245.541885 133.534836 213.464401 215.896851 254.373505 245.051529 239.337479 219.648453 196.134857 268.302917 240.280396 170.880692 384.955322 292.495331 319.555908 124.283279 117.890839 164.387741 112.870064 246.241409 134.699997 185.281937 372.562683 248.869690 165.383362 145.545685 155.431763 358.585083 132.912857 179.940094 289.630554 124.545464 151.422440 267.110321 248.312347 205.349014 109.283485 289.500824 190.427582 164.507690 324.321136 190.539673 119.579086 159.157990 248.941635 137.614395 102.991417 104.063736 158.201981 167.655182 220.042892 
Conv_77_param_0 111.413002 71.013329 109.519386 103.865700 101.080635 53.625889 86.349709 94.180824 90.601440 111.255547 120.385574 105.225586 113.696022 128.751602 73.460251 75.186783 104.641235 107.075928 111.291245 97.116013 135.083694 108.481323 111.226173 86.567146 82.118774 209.268692 131.596313 106.090683 94.970070 169.080032 101.354691 78.736809 50.472153 117.925827 94.466354 71.046333 133.642517 105.785011 178.162521 95.286804 102.455376 70.010139 95.469986 102.393456 95.144081 110.783722 107.905350 63.542309 90.797180 97.919556 86.127655 68.747635 152.125961 91.172897 83.779037 73.971367 95.362396 107.467720 103.324966 111.151756 74.760582 79.941696 82.539993 134.869858 
Conv_80_param_0 154.076019 168.571060 102.821640 166.842041 100.891106 149.135681 101.561531 164.406540 93.395355 160.048172 101.551643 196.890610 137.267563 165.625183 135.199036 142.835892 127.932289 105.781731 139.127075 177.247650 145.802719 141.462158 129.430176 149.811478 148.523407 154.407684 98.608871 125.078171 73.118752 90.495850 87.817970 118.474731 109.375732 100.765091 259.782745 160.198944 108.416336 97.799385 119.033386 124.450752 93.032875 81.204323 193.985809 133.968399 99.469124 134.837692 108.467842 92.196152 140.916046 69.479385 140.556473 124.359497 132.027985 165.859756 140.231445 71.611206 198.112137 115.140404 194.390671 125.868073 116.801849 92.971657 107.247345 137.902573 
Conv_84_param_0 167.222137 143.406326 183.966797 185.682693 159.636658 220.173645 293.036682 219.964706 178.711334 174.120468 157.146225 105.631462 289.170044 75.804436 341.691071 137.376236 200.181824 92.847504 260.862488 227.297638 85.595543 227.625854 140.606857 180.623657 176.146225 188.873062 89.650932 216.374283 114.036705 169.008667 250.782715 157.486755 148.610367 156.182587 180.893951 214.090424 211.485580 154.140747 158.955261 226.194092 180.885895 99.485901 131.211868 168.855667 254.918991 182.994308 188.571808 187.882996 216.758865 225.073029 114.250229 94.249588 136.547424 84.996101 80.174706 153.159988 234.743835 200.978867 260.759399 333.603363 167.775864 232.000168 157.688522 147.326599 
Conv_87_param_0 62.156891 89.314835 73.878433 128.932968 54.559612 98.799583 75.742645 60.358013 81.214233 145.080917 96.240822 87.567795 89.612999 82.154991 82.979385 112.021973 171.764755 108.266502 131.290512 121.263306 93.899498 70.877602 82.731873 111.415428 112.006798 127.861687 68.426300 110.475151 29.768311 66.765884 64.069008 74.329956 91.581749 66.919754 153.302048 88.752838 82.126785 87.727997 70.363335 61.420872 107.628281 50.929714 113.142838 142.996719 76.156204 79.613533 122.879417 78.504051 120.066711 106.349449 84.504639 97.656120 118.480476 101.467789 139.641357 91.780510 97.055275 86.757469 82.614395 96.089546 108.904839 79.864090 69.339676 87.096222 
Conv_91_param_0 92.405045 115.480812 175.760132 145.867538 218.438187 202.808990 124.420128 123.900032 149.034653 118.311836 176.945633 105.498688 84.707054 124.615044 101.034607 128.462097 59.169281 171.716324 112.300575 109.168938 188.577652 93.285896 120.282562 80.712517 240.508606 100.926193 113.115463 229.017838 112.011322 86.600166 100.302864 164.716370 89.210564 128.748505 129.178177 137.351562 96.889893 60.992104 180.983459 188.266479 92.689766 155.306152 86.997345 116.317078 79.429352 143.841187 57.328453 139.473526 137.905090 137.026566 184.404419 118.105324 208.498718 70.906425 109.434242 85.607094 179.451340 166.046249 68.212296 91.116310 215.083725 152.932983 157.337128 146.356110 
Conv_95_param_0 353.928894 352.045685 382.932861 378.883331 418.858337 228.845642 416.011475 334.105804 303.099792 298.973053 665.328125 338.957581 368.290802 421.463165 320.239349 491.419434 500.028839 346.327637 408.518921 655.179138 746.910461 337.995758 361.894073 593.876526 467.366760 727.016724 314.166718 426.242462 275.553741 222.409927 316.881653 427.066132 496.990234 367.056335 389.688599 271.646057 565.738342 592.461792 475.807648 392.248505 440.180939 267.706665 378.169983 269.496948 299.432281 603.109436 332.568146 543.332825 328.737915 544.990906 640.875488 423.281921 259.665283 298.674622 242.339508 243.324493 447.905334 398.249481 573.838135 388.698578 261.332306 332.966370 382.395020 442.802948 467.312103 426.197113 353.399384 601.027283 252.794495 463.350098 541.471680 285.934784 220.590637 474.503693 216.101593 611.926086 408.358765 276.678528 418.337280 348.634949 385.857727 172.516220 466.743042 310.554749 354.371674 220.331680 355.962067 378.203186 347.615295 279.589111 859.176086 600.286926 769.023071 290.235016 365.994568 430.786377 373.828217 940.842773 701.112671 157.236298 451.795868 358.642426 572.686707 324.728058 472.726440 629.050964 343.796936 436.919708 907.612854 238.208679 333.169739 602.513916 322.691132 339.054352 322.051697 331.023712 278.718262 283.208252 244.661880 323.274231 267.856079 416.055817 187.350555 236.024033 726.369019 400.175690 284.875244 717.453491 
Conv_98_param_0 797.388306 583.956665 402.357788 670.071045 547.555786 321.264832 514.144226 703.099792 503.570892 645.649048 698.475098 866.254456 691.732178 666.420837 461.707001 437.505096 588.762756 629.609863 471.680756 738.962646 615.777039 568.775940 626.728760 730.958984 336.446777 393.740601 617.995605 904.254028 801.872131 372.805420 707.258362 838.716736 468.706329 729.571167 781.113953 532.052673 422.805817 394.495575 428.942627 450.008423 649.865784 1060.061279 536.870056 336.455811 524.573792 630.868652 374.092682 946.153809 378.849396 582.127075 530.737305 434.654205 342.887695 410.702637 550.744324 786.452148 423.666351 461.686371 740.998413 647.838074 385.299194 438.367157 526.258911 803.460510 504.738861 512.590393 566.086853 784.092773 803.094421 406.829468 588.078857 612.087219 430.728271 509.625610 644.937073 638.778809 396.876190 459.055664 630.791382 530.627747 751.534302 519.002991 850.596802 435.749695 896.920715 631.023560 604.769531 666.645142 419.931000 290.044983 399.291718 541.317383 440.102386 542.713684 652.379089 528.067200 611.505005 529.831421 502.205841 800.666016 589.759155 501.118011 673.526489 609.738525 916.868713 756.321777 475.293427 491.930054 618.791870 809.852905 954.131836 866.324402 657.390686 651.114197 423.461456 247.343491 1045.759766 595.915833 426.367126 740.104309 536.785034 1004.246948 647.710693 546.325134 438.755737 402.836121 576.604919 640.389709 981.177856 350.910919 844.136169 467.777252 857.127563 511.706207 557.077209 416.001587 398.066711 569.057129 637.069641 668.665161 586.911499 618.629333 409.578308 651.512207 830.837524 813.662048 523.222656 795.056274 866.418457 805.078003 326.932190 614.189941 576.369568 625.431335 1219.706055 552.188354 816.917480 361.671631 592.082031 278.029846 792.244568 562.760071 464.083740 471.694366 389.460114 463.861572 699.562439 283.969421 429.763245 741.580872 380.112488 896.683838 493.137115 572.501343 324.332214 366.098938 522.344910 516.157043 635.929871 456.099121 669.818909 598.545044 424.864227 617.554077 274.191132 493.637634 705.954956 253.267517 449.563751 483.033997 585.810791 374.880127 762.166443 684.114807 618.457703 447.723663 550.412903 976.878113 789.912476 363.383453 453.185303 385.286438 582.351257 459.799072 542.343567 432.057526 736.716919 443.805176 744.920166 742.106812 617.278809 441.511047 540.430176 865.293396 514.803162 576.351379 441.178223 515.105774 941.162964 454.935089 690.081665 357.145569 853.668396 1036.568726 460.757141 689.306274 450.857849 731.356201 690.045837 525.770508 557.404907 587.960693 584.862244 551.804626 375.462799 399.156097 773.723389 956.378845 606.301392 269.036346 599.156860 625.985474 427.627930 511.920959 733.325073 591.869568 695.139832 423.989838 339.560150 714.333435 471.552826 455.047943 692.734680 952.129211 671.677612 503.295715 
Conv_101_param_0 840.244751 929.272522 302.733490 477.743774 1307.964355 467.241730 682.333313 554.236145 354.225372 284.218140 1000.578857 1146.477173 651.469360 1026.088989 371.602112 536.718018 467.152832 656.614380 436.997498 565.222778 476.306763 459.413330 986.224365 756.572449 871.846008 431.684143 617.049072 775.830750 816.212524 742.818909 885.078186 754.314697 558.510193 705.094543 589.634460 560.209351 702.437378 492.081329 1195.476440 703.773010 597.821960 901.221619 382.448792 443.114288 476.572510 663.367188 722.291321 843.955200 1044.484009 734.323975 561.797424 446.116425 681.538147 636.210999 873.964111 924.766785 711.863281 881.423462 680.357727 837.253723 480.499359 357.019104 609.929321 553.671936 761.478027 552.072021 704.278931 607.349182 908.881348 670.439148 83.658714 873.812805 440.744385 532.625427 965.737305 655.471497 557.470337 744.236816 1229.045166 792.007507 547.884644 1066.296997 301.083496 844.041199 705.547852 686.140198 1343.090576 850.631592 579.130188 722.201782 794.013062 965.478333 662.776611 870.503174 502.202179 583.496094 866.550598 557.513184 390.333160 406.893524 1234.177002 843.378967 485.429138 1157.286255 533.943665 333.071625 468.729187 693.934692 401.727997 902.257141 1351.834106 360.572113 192.579681 997.091553 1203.981567 381.298035 296.520905 673.680420 460.926971 517.581848 552.878845 662.242554 684.663208 775.054382 735.718872 653.259277 572.849670 587.223450 
Conv_104_param_0 83.103210 83.012733 103.229073 53.881756 93.613892 100.236725 55.837662 90.584473 75.093491 59.077267 70.123512 80.375198 55.846863 37.504749 82.640175 48.125992 82.050117 90.838585 80.308052 82.019928 80.319748 75.298035 72.286125 100.174881 69.938423 86.488869 97.648018 103.432716 106.084419 70.254539 51.494934 94.816757 84.660561 100.794395 80.201286 73.005074 113.062881 78.653496 77.278778 88.549828 85.488548 89.896103 66.966797 102.005730 91.425484 89.986908 48.972351 87.964081 48.564468 88.672623 61.479645 89.723358 116.396553 96.986816 90.930908 99.704803 49.354816 75.570389 70.773094 63.648693 76.522179 67.645775 84.523949 83.387657 79.029251 93.391106 90.262337 80.535217 56.448433 86.571999 51.227654 79.880341 66.622063 105.888008 61.466267 110.336388 69.069191 80.741966 53.156219 53.567810 88.448158 97.083733 58.681061 70.340492 101.702682 95.973557 63.219528 84.313866 79.268860 83.959854 64.944031 97.809700 72.991737 101.480537 141.108902 79.052254 103.534096 96.697815 74.342377 69.777954 57.232498 75.470741 69.579498 73.495964 79.047073 45.175602 81.404129 70.028412 91.704315 104.436874 63.838329 64.906075 98.460342 91.243980 110.095856 104.672432 57.732979 62.065010 71.720978 247.356903 136.138077 104.020920 64.853821 66.348991 78.560730 91.014069 70.223961 78.674988 
Conv_107_param_0 481.477081 342.412933 461.993195 368.420959 393.876099 403.817139 403.320770 469.613312 516.523621 225.585205 413.230621 507.988831 320.091919 280.573059 151.438934 761.487793 237.127899 439.169617 311.970520 322.120453 112.442482 316.485748 253.822449 480.470215 590.791260 381.400665 168.337128 400.737640 280.935394 440.711395 298.540009 467.972748 285.169586 408.068695 425.215027 705.031677 172.597427 379.499695 166.735458 438.716949 305.265137 491.430298 233.021149 703.809509 400.181061 446.051147 363.960632 442.384552 475.549957 246.360046 147.116791 355.541748 293.729004 402.065338 515.997864 312.647614 351.481628 390.107117 374.216583 553.171265 646.965210 303.458282 365.731628 322.748352 332.914276 309.516113 397.920288 289.012726 342.693237 132.948502 367.692902 508.773132 284.135468 254.268387 230.790390 389.258514 358.512421 512.932983 268.308868 934.575562 420.778473 219.052582 360.859192 196.002609 424.567200 444.502441 343.293060 348.510895 199.967667 273.291656 395.555359 305.360107 517.782593 437.111847 357.521027 385.566711 137.669510 228.768524 382.200531 492.004944 587.269775 452.575348 345.411560 242.144669 204.564377 424.775604 513.172302 419.597382 300.246552 378.458496 280.608521 424.498322 150.515823 343.537384 576.500305 282.001099 409.576172 260.057037 490.582397 285.505249 473.293762 332.664520 541.264648 793.411499 334.127258 336.460938 437.302673 363.986816 
Conv_111_param_0 133.010315 183.056427 73.098396 171.482346 74.866302 99.769409 126.048828 168.864456 114.781784 71.095924 127.456421 121.483665 86.306328 134.330688 107.184677 115.771782 125.061028 137.604858 130.306763 181.338226 99.906166 85.937767 163.588242 77.526802 145.897659 131.115387 129.142563 119.903915 160.504501 97.597336 90.973679 117.509293 155.217163 148.280777 114.691132 170.592407 119.830681 133.981201 136.106949 139.726669 112.734550 75.256599 104.861221 70.935623 160.008743 146.356216 86.862450 83.845879 123.871902 120.562050 69.917877 95.603989 136.483459 120.989197 92.658615 100.570015 128.485474 103.911301 80.926239 110.272354 97.347511 156.021317 91.019211 180.824036 105.794891 173.650391 128.311584 152.553909 129.806061 130.765854 69.754456 94.918648 99.200066 79.218506 107.394707 91.914085 103.492386 97.355423 91.991997 77.080650 154.582886 104.146187 133.302750 109.656891 99.000961 96.998978 115.629890 103.034027 178.185547 127.015182 120.825142 154.565750 158.772034 106.055305 123.333794 111.106438 56.288994 96.402039 117.880585 112.029129 67.563698 99.606865 109.113564 76.204155 111.153038 166.970886 82.855072 115.823425 144.850769 133.226791 81.664627 103.644653 113.325294 104.047867 96.706177 121.434853 95.813988 110.894157 107.236618 78.834991 125.322037 134.272980 168.147949 92.928581 101.145180 104.396744 126.056610 140.584503 
Conv_114_param_0 191.139923 173.140198 258.211578 148.374786 322.214203 158.362701 204.590759 171.821472 168.662643 144.208755 184.309906 313.152283 118.290474 238.001587 153.711609 213.981415 170.310303 180.645767 197.112213 193.015808 135.935730 187.779160 266.324432 215.398132 243.399017 142.024109 136.160843 168.776276 179.476471 186.094986 148.322021 229.661606 157.333969 190.937531 206.940262 201.617203 180.264587 217.705063 200.055695 202.195557 131.641144 265.506104 162.350128 200.902618 203.604904 143.728836 179.035309 294.123688 218.421524 168.657425 560.150330 128.467239 242.571457 151.320160 341.776001 237.104477 153.521667 193.595764 305.093292 216.308151 293.286255 179.470078 319.059662 259.031799 222.649780 130.617279 159.651031 275.172791 219.095764 103.674942 246.752975 322.529938 254.922562 174.169205 206.511948 189.046478 218.781113 199.057877 309.764435 199.039230 186.915878 249.827911 220.843796 215.604172 202.420731 410.640137 280.204102 158.412933 178.427704 216.993973 187.219925 231.166183 109.618515 200.052155 246.441055 220.420364 168.286484 223.247818 158.171814 230.516663 184.091019 305.781647 203.114349 46.347076 212.098587 228.929291 196.736832 232.521866 252.500488 188.431580 218.503860 280.923737 235.992462 216.323959 258.447998 150.156387 272.894775 166.357635 176.342590 177.570892 313.035522 258.012360 90.461563 186.112686 251.598648 198.893433 149.761398 377.444427 
Conv_118_param_0 280.436005 217.964676 151.413910 207.423904 262.195312 220.088562 116.622375 262.162842 142.173309 136.591537 164.896896 275.339478 261.845398 247.948837 248.926773 198.953903 257.477966 194.552338 233.953156 219.201691 180.261856 186.175446 217.599915 260.852325 186.269608 228.942932 244.276733 359.672516 155.228638 195.156784 201.455811 1035.190063 181.420990 194.674545 224.265320 186.340073 125.460617 241.943619 244.821808 169.071701 264.062134 196.047211 248.758972 329.593536 167.568954 259.469330 232.347183 237.636078 215.739624 141.554291 194.447845 190.375168 239.674728 246.908295 134.889877 182.864258 192.452118 262.915833 343.764282 284.349701 193.950882 463.410217 149.035400 212.170792 229.550903 188.683212 191.923569 211.953857 155.852051 231.048386 245.010925 169.916977 234.744766 245.554825 165.331375 280.338379 197.010101 215.195419 206.077759 177.868881 184.165421 206.352554 238.377441 243.596832 182.195740 158.033051 188.943619 273.252502 220.164948 238.970215 155.126816 254.151398 188.988922 238.569092 244.541183 302.427734 212.023621 276.485992 238.484528 199.359955 145.782745 207.740524 157.526306 243.576233 230.287415 271.782196 187.290192 284.381744 101.407478 233.002365 144.769974 172.775238 162.573471 219.396164 150.079971 277.739960 184.062149 215.457825 167.541641 169.339249 175.453049 238.796417 121.958542 205.679550 214.475021 242.529602 177.133209 201.014114 
Conv_121_param_0 119.929665 117.035736 105.369682 108.563667 114.111053 174.501083 86.230881 146.673264 199.785751 103.787285 119.196152 150.918198 141.771027 129.133774 132.402115 135.660965 139.214005 131.985062 179.095200 146.346222 145.569626 142.648911 83.413284 107.143097 142.541626 130.365173 166.562607 99.325974 96.125839 121.588684 112.617882 151.866119 140.216705 105.047630 146.159637 193.166092 163.033951 127.472862 127.644310 130.373734 122.672478 186.445587 112.732117 86.337288 95.964874 119.240135 89.703308 155.460159 142.955612 161.662857 105.921623 145.725250 176.369751 114.418953 138.840714 85.439636 113.118179 127.006493 216.015152 126.627846 165.406128 118.137360 146.177673 118.898712 165.452377 136.733093 110.471313 192.858047 179.421173 119.182137 152.494461 109.329002 161.824448 82.751900 135.849869 79.341476 101.013977 231.807404 142.126968 130.952484 88.902992 56.474449 137.988037 67.397064 137.710892 152.014435 102.356140 53.864254 132.056198 132.247559 173.577576 109.440025 107.179199 140.482681 127.488823 159.116699 100.194382 136.083878 45.285458 164.144440 127.232994 135.811310 105.977272 165.184662 133.883972 142.915970 128.380417 220.636551 146.997131 147.726624 165.348999 175.939819 112.345680 97.108681 143.826187 139.826797 85.753510 201.599915 117.006454 93.109314 167.359329 211.479813 161.418777 103.115257 132.827774 182.467514 98.873650 122.329338 
Conv_125_param_0 296.134918 222.975571 197.850952 185.433228 202.706787 187.764969 153.155685 171.824203 251.245163 223.618530 231.668198 140.331406 208.030334 135.775406 245.305893 235.344162 131.873184 133.604874 133.261047 198.548233 138.290253 143.306046 231.388809 152.159912 219.554398 145.096237 159.496964 154.995071 214.526443 226.849884 221.393036 229.509460 178.268661 199.008682 224.607162 210.350372 239.471619 215.774673 200.137909 224.948914 171.296951 196.761337 259.541656 365.759460 175.776566 168.115646 244.861649 234.218002 164.005890 182.601181 149.138870 186.047012 185.412766 231.071274 166.305496 229.826172 307.267914 65.469025 192.373825 182.709549 137.940964 171.325211 176.672943 194.336731 249.267151 171.536652 184.786346 132.676224 221.883636 200.293503 174.806381 123.401009 228.279068 233.623962 214.098984 288.751068 216.209885 277.931671 191.941650 148.833252 193.421341 191.188004 250.810623 191.019363 213.346390 151.651627 180.813858 262.058746 267.232910 157.866913 184.451736 216.743820 231.559158 249.401657 213.193085 209.075394 222.118454 210.832962 155.465805 145.042145 216.801895 208.505310 221.956726 240.736328 218.069397 169.093948 202.205856 94.501396 215.228653 236.218857 251.920898 130.704269 220.773407 198.732941 237.231323 211.893265 174.540756 140.758362 136.803680 206.667709 225.729584 189.893127 189.276596 331.675415 184.731018 216.384003 250.329071 259.704132 
Conv_129_param_0 429.333801 551.204529 624.371643 334.042786 597.854126 556.390381 454.553375 384.789856 455.929138 363.473969 422.071411 636.028564 222.849426 488.846008 523.220581 810.445129 457.289825 537.386841 983.452087 352.566498 626.025452 187.976883 428.026093 293.286499 569.128235 508.783173 567.390686 557.263428 414.085785 498.840668 240.009888 362.657410 354.454498 508.727570 409.983978 508.681274 357.520325 418.618011 263.842743 419.484192 409.118591 410.035828 373.177490 533.430359 993.862549 436.338776 426.380432 543.505554 684.057373 424.180939 258.136810 350.660187 414.722321 557.930054 405.133911 249.947678 471.779816 564.455444 505.717804 362.145935 552.913818 437.120941 350.505096 433.735962 409.474945 396.117889 262.356323 327.720886 198.110046 426.948425 566.172058 501.829987 553.767944 632.350098 368.995300 346.899506 388.066406 384.563812 250.983719 519.243774 541.244385 670.834595 565.827209 469.167419 549.963379 412.930573 488.900574 492.875366 610.590149 581.149353 651.833130 771.700500 596.610291 531.673462 437.491913 518.147766 469.286102 438.414215 635.049133 323.850128 315.520996 294.622437 539.927002 525.304504 557.871826 542.296448 848.558411 490.088531 462.620239 490.391907 359.659241 680.563293 533.366333 526.473511 350.913849 413.692688 519.236877 759.725159 465.450043 478.425537 305.424042 797.106079 220.702835 679.733276 559.051514 475.974060 368.793396 318.747040 439.241364 384.834839 891.517639 372.959442 537.269775 312.847290 358.088379 380.520996 429.930450 475.381012 249.021301 510.426575 564.351990 518.262329 682.777771 576.888184 556.836182 566.478760 360.317993 464.595642 495.194305 484.223297 395.008270 487.060486 441.125061 461.749969 432.202240 389.384338 376.828552 432.766083 608.194519 569.420105 285.776794 280.439148 381.955994 421.116577 338.626831 389.663422 365.341705 336.535919 415.866638 446.830139 309.489868 559.043152 387.146881 594.143616 380.904053 307.444153 431.791351 503.157135 439.973938 452.333374 297.344727 481.023834 307.363251 504.029114 414.172089 356.888947 431.832367 456.796783 408.200867 706.831970 581.562317 548.799927 374.074341 779.441956 439.264038 234.863281 330.864471 539.161682 446.524567 535.334290 373.757019 434.544861 638.816345 248.616104 496.362122 511.164093 313.394592 424.748108 302.718048 343.006409 502.663513 580.069519 416.919159 426.175751 511.446259 581.265747 466.697845 608.315735 448.826599 534.237122 424.285492 498.763794 388.712708 475.254089 456.729034 594.993774 349.732758 484.970581 405.699890 536.447266 421.553772 520.194031 481.108246 459.821625 697.924622 569.461365 470.668762 662.665527 298.147400 223.899963 595.721741 322.183441 556.280396 327.229309 351.298981 647.403564 395.454834 405.448944 345.382446 368.907898 315.935394 444.825470 492.212494 537.949219 461.724945 398.419678 
Conv_132_param_0 902.263062 780.585632 1157.039307 871.308655 1235.847290 984.644043 1023.270020 1508.616699 889.020630 935.464417 743.306213 1005.165649 728.022766 598.373352 1005.688232 1026.840698 976.328979 761.412231 1226.344482 892.294556 1404.462402 1319.894531 1006.464600 706.745422 984.029663 1127.238525 1080.712524 949.845459 859.963745 1239.600952 979.045898 1347.645874 825.544250 992.689209 1121.875366 1218.973999 412.472565 1163.401123 994.328796 713.072021 1143.567017 1256.522949 934.531006 1333.326294 1157.002930 1013.486145 1060.285889 954.838440 776.822571 1175.411499 1186.006836 821.186462 1175.163452 1150.312744 1308.191895 701.849426 1142.642212 1003.379700 540.252075 809.896606 1173.769775 957.085205 1036.584229 885.677673 975.722839 1421.592407 988.240356 1070.497314 806.094360 1258.591553 1076.461914 1291.135986 802.715393 907.314270 1100.941406 928.826721 1033.297852 1082.880005 1012.968811 1130.985718 533.495911 1043.973145 359.051086 741.371399 1064.565796 435.997101 952.054688 774.341064 758.314148 925.465698 730.992065 719.280579 952.796387 1008.450012 1355.038574 1008.325012 1336.724121 869.247131 1440.409912 616.500000 1262.009399 1022.086243 1359.706299 1112.472534 1233.747192 627.115967 614.316528 929.170227 1383.292969 657.226257 984.000488 1062.525146 1309.100098 1000.289734 1125.907715 491.581848 1009.157532 978.530273 740.272461 774.324890 781.073730 1162.769165 1069.356934 1337.276367 952.149353 892.507080 1447.451050 1248.469116 665.353760 453.227417 1090.585449 1021.364197 1136.639160 820.802429 924.811462 807.851685 927.185120 947.528442 1095.499268 1242.026367 1007.855652 981.618347 1010.909790 1300.749878 961.094604 554.731140 1344.986816 751.794128 740.386047 682.470093 1099.651978 1119.969971 1276.610474 625.978394 853.121521 883.697144 1086.067749 625.572876 1080.036865 1109.785645 1043.775391 1435.229980 1278.898804 560.481689 1064.366089 1196.812012 911.368896 959.898865 1059.648193 735.439941 1006.955811 1396.691406 1044.352661 1132.059692 832.847473 1264.559204 1096.004761 1039.995605 844.505676 734.289551 780.101440 942.671875 1131.664917 773.871643 628.464478 984.522095 1132.731689 1017.653687 834.312500 836.177063 889.586609 856.467102 1119.702637 1197.283569 1798.525513 687.900024 881.465332 935.671509 1174.780273 1005.963867 1044.444092 1030.835938 1458.939819 1214.096802 1236.254517 1296.966309 888.438110 899.373291 966.645874 974.551331 1003.302124 1251.341919 1010.432800 936.712280 1185.853638 863.687988 1112.504639 653.195312 1395.589844 1122.617920 1171.373535 919.415222 991.468628 691.049683 1206.388428 1202.585449 1168.013550 882.913208 1072.331665 1066.133545 1016.426697 1068.520752 683.156433 1055.805664 749.910706 989.855347 1163.623047 1049.197754 1416.951416 1190.214233 1317.846558 885.099243 1052.218994 894.953674 911.835571 1086.069824 936.221375 771.117432 952.991150 923.036377 1067.310791 1215.721069 887.917725 706.439514 1370.374023 1288.902954 896.958191 1370.443359 874.801086 1261.645508 1252.137329 1136.454468 1049.922485 1170.247437 1220.667847 1162.076904 1366.071533 699.838501 861.810730 661.039429 1302.084106 518.941833 976.426758 844.111633 902.609009 1304.370850 1253.125488 978.429321 980.522095 584.478333 1311.834595 895.014954 1016.249146 945.907166 968.972656 1071.016235 1269.579224 1159.581177 856.377747 784.934265 1229.284058 1096.423828 1112.066162 1162.812012 1284.776367 1489.131592 828.118713 860.968628 1110.246826 1109.622314 902.379700 868.037964 902.142944 1037.687988 975.739014 1120.477173 839.335754 1006.430603 977.108459 1150.059448 1089.918091 861.443054 1099.057983 1159.557861 1190.812256 1025.035034 710.879150 994.423584 1086.140259 1376.786743 871.738831 1046.020752 1060.626343 962.224426 1423.975586 890.418579 552.173950 989.668091 1513.923584 710.937500 927.103027 979.150085 802.443054 426.633636 1424.319092 1148.283447 852.867188 847.217285 888.116821 781.665283 1014.931519 859.004028 720.030762 707.608276 1249.637451 1305.697388 780.420349 966.985168 475.399353 1415.877319 962.570557 1385.820312 751.667725 1198.196655 938.388123 912.923706 568.826721 874.031799 1185.203735 794.011658 1398.416870 1111.339966 1061.822021 1042.052124 531.921082 922.037170 1154.022827 1097.948853 603.369080 937.345276 1270.600586 629.863220 989.627197 843.939392 1123.311157 1128.273682 945.145691 1054.078247 1131.856689 1329.902222 1040.176392 1010.621399 1180.558838 764.286743 946.503601 1376.985962 1092.031494 863.900208 828.456177 907.883606 1243.239258 492.840790 904.256897 1072.434448 808.028687 1364.140503 530.816895 708.713196 1056.182373 1269.338867 1026.756470 1088.205444 975.869324 1417.708374 1123.486084 789.905090 932.720459 1019.335022 919.632080 1311.539551 1410.057007 954.639954 1327.733276 784.361938 843.120605 840.620117 1075.419922 766.495972 525.469299 774.349609 1227.924194 815.713501 1143.841064 1027.132324 844.970398 788.636597 1134.617798 937.948914 1211.958496 1134.737671 1024.276611 1214.946655 1106.525635 921.483276 927.029541 1297.400391 1220.977173 1308.394287 950.364685 937.266907 1038.763062 1061.051758 924.692139 1023.387939 969.504395 1012.099426 873.352478 1086.048706 1294.358765 651.936157 1155.057617 673.391296 1069.095703 1084.662231 736.709229 1151.680542 1071.548706 948.348816 1644.668579 1134.927368 950.091675 985.893860 1044.253784 992.795715 1209.146118 986.718628 904.045898 547.132751 872.203430 1027.685303 1203.258057 764.905029 928.362610 1084.894775 1183.841431 916.445190 804.879211 1012.568298 1047.330566 1207.352417 897.186096 1130.845947 961.773438 1481.921143 1071.837769 923.283813 1167.380249 1097.434326 361.422729 545.447510 983.834412 926.951172 1293.797974 749.503479 1283.573975 994.937744 1207.743652 1173.154419 912.286072 1183.304321 930.688416 681.482849 880.848572 1030.437744 1142.097046 1375.681763 878.019043 1011.230286 697.068787 796.342041 1157.738770 925.825012 
Conv_135_param_0 662.494812 405.680145 583.337219 428.319885 510.726776 318.503967 765.483337 554.706543 841.801331 589.262512 579.001953 494.632629 595.800171 648.548035 627.969788 975.640259 858.478271 358.606293 582.407532 704.953613 587.966125 763.836426 552.265686 629.913452 459.281342 510.649231 291.847046 656.027588 484.553650 675.896057 426.967987 633.511536 777.659241 698.558228 770.507141 618.193054 850.057434 725.142578 396.604034 625.761841 479.387970 831.218506 747.668640 714.475464 374.763641 799.999634 448.598877 795.687744 310.781067 773.974121 517.869629 604.939392 725.607056 693.660095 253.401703 848.005310 637.522888 437.985046 783.876587 755.452576 660.907410 548.786621 538.500061 786.145691 589.547852 537.736450 603.108337 790.138428 777.338135 629.499329 763.159119 706.153992 722.957825 808.952637 712.809265 703.371399 389.670288 784.942871 442.921173 265.543396 534.786499 614.507263 264.775543 627.014709 620.639038 853.156616 606.057800 605.195984 590.511475 662.867432 517.351685 650.066101 741.356934 580.098083 580.609131 754.636414 694.589294 695.642944 670.691711 364.030304 546.006531 610.461792 604.927612 581.900330 537.969910 654.697266 517.926270 563.983521 602.647339 303.495789 890.970276 877.339539 913.313293 440.330139 767.112000 590.017883 691.384155 715.704468 664.114075 636.525635 691.086365 870.598755 804.923706 723.726746 486.575897 647.332336 604.514771 612.411621 619.171082 632.342224 682.845886 451.225586 854.078003 824.652771 613.047974 562.120178 354.165100 358.312683 453.798187 513.743225 694.618713 654.596191 1036.052734 608.291687 663.578735 602.740417 223.651672 547.980957 695.113464 702.988647 514.017517 442.714264 855.407227 628.245300 262.307159 536.565369 891.766235 729.383057 801.821899 655.685059 534.154663 684.040955 597.752563 712.540100 777.999573 976.222412 725.780334 680.979370 686.612488 597.642578 247.983551 667.587402 830.336426 887.658325 719.358276 483.417023 626.184692 659.358337 689.077332 420.839417 596.015686 837.842346 373.646698 689.660278 496.099915 490.052124 286.638306 541.843262 676.525452 566.726257 678.213928 718.970276 845.043823 670.576538 740.968933 489.741241 761.049866 830.743530 513.685364 770.416748 519.598511 413.175140 780.966003 568.533386 749.627380 333.006165 603.596252 750.661438 355.003601 980.177307 524.348267 698.910461 703.346436 628.332092 1002.540100 752.499023 647.946411 737.672852 613.701172 790.954773 510.375000 609.148682 526.063232 778.197144 519.460571 852.111694 752.362915 604.865662 601.168152 636.377319 610.672485 719.765686 394.427612 498.896515 605.329102 507.544952 494.921295 497.412659 710.248657 532.602905 329.374786 704.196106 742.655396 559.060913 627.531128 343.025421 804.090149 655.951172 634.585754 615.540405 529.346863 437.468750 812.591858 395.943878 829.522400 660.367371 
Conv_142_param_0 1145.496948 1456.320923 1767.034180 1036.845459 1168.219360 1112.870605 1097.946045 592.302185 549.478943 1591.074707 1132.038208 929.662659 1356.392212 432.334656 714.249329 1264.017212 809.087524 1420.729492 1680.935547 886.387878 1216.952026 690.419434 1920.783569 453.344696 1087.633179 1555.066650 1183.733032 857.735535 942.439331 1096.334229 1229.770752 1079.334473 868.921082 1402.212280 510.709656 1136.119873 876.340210 392.373871 527.957947 967.537903 1547.276855 1395.986694 982.992371 1178.822021 977.597778 1489.191772 1366.046997 776.185913 902.021973 1304.817627 814.359558 824.375793 1442.474487 1507.740479 1019.661133 893.257080 972.934753 1345.985840 1290.698242 937.808350 793.763977 977.104980 1563.587280 976.777588 536.506409 686.907104 954.352051 717.644348 1464.494873 377.362762 1815.329468 1238.844238 1543.590332 1722.468872 1291.733032 1099.780396 1759.061523 1388.572632 569.568420 1675.162964 1221.036621 1421.080933 798.567322 1534.228882 842.344238 1931.316162 1143.222656 1310.988159 1743.308594 1116.118652 658.608704 1257.058716 954.335510 961.072205 529.318237 789.578308 755.338806 1050.901855 658.833679 1092.825928 1044.315552 947.245117 680.552368 1447.869995 1808.134033 1282.086914 1359.345581 1191.715698 1322.923462 715.694214 978.490967 1131.823486 1219.289795 1051.505371 855.706360 1300.643188 2081.895020 1355.422607 833.484558 1094.633789 785.355164 778.646729 1184.584473 574.676697 1258.660645 1522.103027 1256.362793 703.715332 980.769775 1407.805176 1808.637451 838.915771 1335.186279 805.907410 999.132202 2075.302979 671.388306 445.029205 1441.555542 983.549866 1511.018677 1080.107178 1425.180298 1230.529907 807.791809 1057.845093 700.009521 1121.347900 1306.577515 1359.878418 835.734680 543.323547 887.391968 726.492798 1024.617554 1351.709229 1390.785767 528.846375 1154.852661 1393.364014 685.816345 882.202393 1024.586182 1876.617188 1549.848755 1739.489624 874.478760 801.546021 1203.511841 743.615906 1132.252686 1106.246460 1210.203247 647.317444 766.346130 950.468933 889.666626 688.337585 1173.297974 1453.557129 1219.331177 606.214355 829.119568 1764.460693 1538.291748 1337.458740 1419.806641 777.269653 1969.247314 1051.265259 835.541687 789.988403 1121.569458 1598.357788 1174.784546 1555.849609 1321.109009 498.650024 1279.867432 1424.929077 815.471436 345.406891 1338.257690 866.132385 1343.267578 804.207458 456.861572 1070.000122 1343.319092 1321.115967 1660.284424 1273.345337 863.102600 1311.958618 1509.239258 1434.110962 509.444702 1335.205688 1178.135254 1411.101196 422.850159 877.634644 391.714661 595.926392 1174.939819 1282.877930 647.820312 1305.827148 1079.769531 470.116302 1037.077515 791.528564 1243.845337 1054.255615 958.491699 590.960876 545.049133 1189.441284 1368.363037 1827.664429 1646.804443 808.582092 806.491882 1434.466553 702.050720 1653.745117 1485.963379 951.822021 1156.611572 1266.455933 1203.472168 1378.431396 1483.161011 1707.088257 1320.517578 1187.248779 1655.347900 1533.938965 1810.678711 1955.967407 568.762573 1644.867798 1314.317627 1092.584229 1314.966431 1826.594238 1088.386108 1148.549683 1700.658569 1963.553711 1031.985107 791.307800 987.378357 1068.307129 1336.799805 757.443726 1844.478394 960.758240 1673.029175 1233.203491 1108.463379 798.019714 766.548950 1047.831421 423.774323 1527.118286 1374.464966 762.108398 1552.558228 544.755859 645.602966 819.663330 687.719727 584.537720 1252.754883 1324.859497 978.852051 1329.243774 1253.330933 724.483643 1141.679688 611.297241 1249.777954 1061.572510 1021.586365 1311.097534 1052.051636 1480.100464 1251.499023 1545.453125 1734.827637 1009.051880 853.498047 485.486145 890.929565 1101.583008 1228.216309 1090.093994 1520.391479 574.612061 1220.567139 1235.301270 669.057617 574.310852 1562.691040 1178.178711 838.754333 1369.985474 1157.657593 1414.027954 1206.174927 802.971802 888.955811 881.986023 942.420776 666.847473 965.197876 1358.932739 980.367065 1224.966064 219.245605 1000.754761 1293.137573 516.085510 762.037292 1152.729248 1539.239868 1178.029053 677.000671 666.525757 1406.185181 1071.017578 1175.652222 1529.493774 578.955505 1402.187622 1165.515625 1596.979370 351.868652 1449.257080 1435.484009 698.869080 936.498901 574.444824 1068.426758 560.323303 1797.578735 1170.851318 1440.101807 1495.954712 869.803833 1115.162476 1156.314087 1775.273804 738.918518 1062.435181 1102.191895 1738.551880 874.240417 1204.792969 1139.821167 1768.586060 1527.894409 1207.802368 1331.454590 996.962219 812.414307 1774.521606 988.692688 1370.854614 618.721069 784.225281 866.316223 1046.574585 1232.496948 1775.334839 1298.657471 677.088501 922.277466 1682.779541 825.262878 475.105957 1123.483765 659.198853 1328.510254 1260.243286 955.773193 1587.968506 721.094543 1025.438965 892.307556 1022.590637 1428.956787 386.198578 1154.627808 534.472595 1326.693115 1470.029419 1195.053711 652.997253 1500.692383 1062.412231 787.198364 1004.461975 1729.086060 1580.280518 840.040405 1560.500488 455.907532 1280.161255 1107.816040 1046.229370 1121.124023 969.238892 447.894165 1444.860718 1034.222534 1206.468018 697.959473 1944.835571 1090.683716 1272.642822 850.582764 514.458679 1073.532227 1118.794067 1338.015991 620.453735 1068.473999 680.216980 1211.351685 1089.345337 1181.629272 632.335510 1281.176270 996.280334 1475.497192 1208.412842 946.619019 1157.938232 1380.968262 665.434021 1052.431519 1422.601318 782.359314 677.068237 1093.947021 940.411133 1130.022461 1368.880371 1193.840820 962.251160 1177.049072 907.479553 829.018494 1505.513794 897.538879 1011.441101 548.045715 1411.902954 1378.366211 1212.627319 1868.508301 1221.659058 1101.182495 1563.692017 1112.002563 1112.307251 753.452454 1094.554321 1305.153198 769.965088 402.447998 1169.076416 1296.478271 1289.899658 1532.935425 1426.880493 833.333679 1322.718018 1331.662964 1960.562012 1012.754089 1075.090820 1491.368896 663.644470 1102.323486 559.381348 690.657776 831.200562 1793.016846 1262.572876 
Conv_145_param_0 213.757019 255.264282 202.092163 275.105865 132.378784 243.077209 290.332520 192.253860 379.203522 210.947784 222.729233 361.642151 216.843842 243.687317 249.584595 256.745300 285.162903 200.235550 232.764847 235.698898 386.148010 255.753418 223.489105 150.376007 150.236557 145.189102 291.238892 347.670074 350.088654 365.030243 216.072281 136.112122 148.907364 231.836258 266.397858 156.009583 340.794861 154.148697 211.021835 246.246155 76.074493 358.297119 260.869202 317.630615 152.665146 113.095840 260.389038 302.665802 273.353821 78.049698 282.344025 311.202789 317.608124 165.038940 257.458557 269.402161 119.493279 293.189545 350.143494 150.073654 250.566315 154.034195 145.606094 241.843185 307.062225 192.345688 125.598221 321.348175 157.789169 86.976639 289.772980 205.080322 349.023987 355.986145 266.257721 283.380341 224.650909 266.545319 201.957275 217.504456 229.037369 289.377930 177.439636 260.615845 176.165314 106.071457 222.869781 271.834534 318.062653 312.417999 392.594696 398.471527 218.946915 224.561554 246.835297 285.217712 93.986778 231.996429 137.579758 281.158691 273.916199 380.520081 246.090271 238.305664 254.531067 154.700867 204.202438 361.023712 223.496094 308.785919 292.835358 292.216064 248.542801 213.945877 277.906525 369.958160 307.919250 270.642059 302.751648 359.311127 185.092392 175.744720 106.707375 277.725098 317.027527 224.252930 191.117874 258.286682 189.987228 93.418304 255.840973 96.487396 259.552094 204.911636 195.586304 214.987411 233.530609 158.741272 255.236298 210.156387 240.790329 265.722137 200.710037 241.555359 343.388794 375.414001 263.534149 217.269730 253.090179 360.106262 212.742188 275.676056 332.641113 265.932831 279.774597 110.073380 220.434296 196.575470 194.729797 222.874405 140.539200 120.553238 206.910202 116.721191 288.062836 230.107178 321.707672 321.048950 280.395172 190.125732 311.402802 395.030090 152.273575 193.732803 333.079193 290.244843 341.974823 300.641144 382.672760 139.921066 154.549194 208.174301 263.549377 160.569122 152.292450 334.168182 297.238434 291.029907 126.166931 392.644897 257.693787 336.432007 179.081604 270.470917 188.718552 294.988312 226.997269 251.464371 123.587860 246.635910 222.321487 207.831726 250.310364 131.137283 246.682404 206.777634 188.510895 255.874802 272.006866 225.997330 213.823837 296.535156 133.243805 294.338593 307.563751 316.326874 374.985779 380.328979 316.335114 115.520943 210.552368 184.838165 256.104614 189.481277 243.152283 193.024246 370.286499 268.489471 300.776337 82.573189 231.430664 298.690582 281.499268 353.313477 152.506592 236.795883 303.949982 278.611633 134.048599 225.271652 328.170776 215.787445 301.273376 285.278107 218.485260 110.952957 238.616943 153.327927 195.287811 293.713654 236.104584 315.944183 259.460876 307.419373 185.736511 241.052368 
Conv_148_param_0 272.350281 193.757660 247.906769 189.930771 138.120346 215.982635 274.920807 259.510895 159.580948 212.110336 340.568909 128.397110 216.280640 213.831741 294.621643 245.309998 176.674820 378.444763 203.405853 273.922028 205.565765 185.127747 309.682098 244.264603 141.134033 256.866119 279.452057 335.000305 331.865021 216.081497 336.210571 145.581467 341.524994 281.948761 289.761810 176.649460 222.073990 147.342667 213.333145 390.470001 311.694336 172.395676 256.928345 258.102783 153.262482 376.756653 175.211121 245.724396 315.844788 284.195831 264.852722 268.584930 262.410004 406.363342 228.783722 291.736786 371.134979 300.287567 281.350433 131.440445 264.436737 280.598450 168.152725 311.061340 206.371017 171.800323 315.105621 166.603790 299.973816 209.486740 234.957474 210.031784 290.905060 288.048828 268.431427 313.049713 313.652130 305.260193 271.952545 367.463654 269.455658 208.520340 258.846436 336.664093 200.043472 320.136566 134.463669 264.494171 378.758514 313.564026 379.489105 412.874268 317.931641 326.475677 279.088348 265.513824 333.847717 349.515045 271.075714 324.794006 298.658325 161.954254 140.490326 185.172897 459.695160 411.352112 151.874069 418.851105 242.893997 264.172363 242.471420 376.968597 240.749985 202.405319 120.607178 400.476898 291.747375 243.058807 348.114105 198.690887 279.038818 327.345154 281.579681 291.891357 231.318634 380.787689 337.941376 195.356781 374.895813 272.592865 344.327545 393.875580 343.426666 111.633766 306.522644 231.961929 258.294739 369.865265 387.532257 196.973480 345.912598 255.086685 230.582764 253.420715 259.877716 342.262970 248.973755 242.950043 322.449127 194.651672 370.100525 291.390717 361.712311 274.140259 317.795624 323.662109 223.956161 226.287537 375.964386 179.812195 282.073578 228.881744 193.300262 295.332733 367.745636 331.147614 200.384018 291.777679 269.658630 423.223022 373.150360 194.015732 267.015717 189.869553 260.455536 218.425049 364.029724 312.915344 229.567780 253.070877 243.172562 257.478088 170.957504 132.704681 317.273743 269.912079 226.162064 162.838211 368.832153 186.000565 366.601685 172.277191 302.661987 188.370178 292.799377 511.025513 291.045837 227.789703 266.484100 333.533844 320.673370 296.222473 205.235474 313.953735 292.003448 131.786316 267.819611 251.295807 330.658569 310.960846 273.602356 267.951324 267.426483 321.510284 348.411163 263.602020 359.766602 336.730896 347.332855 374.948700 333.543793 308.975494 236.467331 286.259064 280.622925 321.278503 278.076904 195.830307 171.088806 142.483093 204.434525 271.424805 175.998672 418.087280 211.238129 231.012329 235.027451 373.702087 350.289581 305.991119 349.502960 260.337891 220.432541 324.414276 231.281036 268.112976 284.399994 210.160172 286.871552 258.054016 192.032349 217.539917 313.622559 370.281708 314.872742 222.557632 
Conv_151_param_0 228.617844 785.495056 378.535278 265.473724 284.157898 357.797791 343.521149 298.889099 375.698547 547.236389 269.743652 280.943604 173.559845 336.593384 275.299255 224.279602 316.160675 341.488281 237.176559 462.413361 271.401459 348.872406 231.904724 363.318665 207.420471 373.689178 308.107056 199.683792 388.662048 400.931427 246.221802 323.218597 253.622620 341.966583 351.138733 244.297241 349.477509 381.179626 362.688324 537.026489 238.495392 198.978119 282.620270 213.685822 427.367645 376.015594 212.399826 371.387299 245.608765 324.389801 199.587753 188.697449 373.863861 403.987366 142.936508 301.152313 220.523239 436.575348 301.328888 280.934021 297.591400 154.527618 384.875305 201.486923 282.259888 189.418335 201.861832 403.044922 396.873199 441.501526 458.114105 377.057251 497.388702 198.443237 279.068970 197.031097 280.621033 178.048981 196.724350 291.283081 380.273834 126.811089 288.365295 342.756287 329.467590 351.089691 425.292877 225.177109 209.097229 385.286591 394.200409 450.567322 349.353973 328.121765 130.960892 191.697205 389.982941 300.550446 559.892578 383.707886 183.902649 299.230530 479.734192 146.818314 383.665619 241.455338 306.047974 210.439667 163.378906 441.922424 548.342102 434.738129 187.564606 231.888458 328.958191 257.839783 324.075134 267.533752 287.601044 356.782013 439.520508 138.710083 367.563538 501.832153 250.614990 320.060303 432.855377 180.202423 328.639069 439.563110 203.124054 229.679718 325.353149 116.471275 307.116058 186.870560 207.789551 230.797913 305.333008 433.614258 241.981781 319.286987 200.925323 519.662415 332.906342 341.345245 422.306335 401.234772 295.910736 177.363373 277.625702 183.266556 299.100311 251.143188 219.693817 366.283966 377.428345 331.436340 357.706879 207.990204 220.999359 513.475342 339.154968 293.553711 365.055939 403.601074 157.088272 330.412445 196.940979 371.488678 472.825409 360.582794 421.393585 590.895508 449.547028 339.394409 514.476562 354.627197 169.550980 355.398804 232.059921 223.918015 259.772797 161.906799 371.264526 314.230133 137.917770 470.201752 230.460342 414.263885 302.191742 312.953217 281.027618 346.279572 277.707764 456.915314 317.437683 249.251083 447.208740 243.574966 192.245575 218.918671 194.393753 317.443207 129.395233 317.533813 264.654816 507.787170 334.642365 322.748077 499.690948 124.751312 225.894043 251.593216 348.628143 270.144318 210.327118 377.881348 237.028107 348.608368 232.270081 207.422745 421.414581 195.732056 409.974731 218.083130 174.155914 188.172806 255.180893 217.054672 326.791504 208.018555 134.764328 307.360809 319.931213 259.814880 293.756805 301.289429 345.123749 438.281952 176.297180 336.223206 456.408417 260.624023 350.701477 206.559235 227.215530 324.337860 223.240082 200.563889 259.502472 346.798279 288.686951 179.118607 193.031235 167.201981 
Conv_154_param_0 313.934784 248.252518 295.198303 350.028503 352.829620 300.150360 150.660355 305.815063 337.680573 338.045166 288.321533 230.962250 325.446533 353.833588 274.176819 175.695862 303.346191 258.147949 148.494659 237.145859 271.845276 357.449249 288.374084 255.425964 191.141922 279.985504 270.568848 233.650299 214.927612 338.456451 230.250504 319.181396 259.782440 193.021851 293.368744 198.556351 245.864716 297.145203 265.743439 126.236153 350.321320 298.072021 186.994644 211.380829 219.967453 225.436462 193.049667 279.037170 260.128784 318.616364 305.237732 211.699173 269.415375 118.914780 383.484283 265.463287 291.916748 177.368210 196.098907 260.773560 365.461975 313.941711 254.528122 232.314865 197.149261 304.664581 282.570068 303.712708 171.365219 344.368744 222.160812 204.472015 253.234436 340.344238 308.324585 281.396454 296.736359 301.045502 330.864044 407.170807 320.424896 116.354340 244.811539 184.933350 256.330902 195.415512 285.386078 278.832275 218.623260 245.402695 253.364136 224.629822 229.489243 263.982422 319.038971 162.565277 286.839813 316.827942 346.729095 293.694336 199.145645 329.932617 305.380829 143.191437 225.263840 214.147736 204.852829 300.471344 297.289246 148.725204 310.862305 272.357117 224.418381 207.028381 292.652069 295.179779 261.585205 308.678619 379.320923 326.192566 308.933624 249.493439 272.315460 252.821091 240.072464 250.200607 182.253418 260.449432 280.574524 224.557861 244.164200 169.616150 243.684586 296.347626 358.324524 233.951828 186.420486 180.506165 237.530945 279.142212 332.007568 241.955978 254.614304 264.146484 323.569702 355.303375 289.609711 309.308716 358.258331 179.069641 206.458878 259.916382 259.467896 111.080223 301.319489 292.818512 245.852829 280.045502 354.074249 208.356232 361.943085 260.196381 299.887054 301.237915 249.660889 210.709427 130.113663 265.973541 341.317108 261.064117 224.317551 208.318497 339.781433 303.163300 290.532318 228.901733 343.453857 334.465393 271.459991 227.206329 233.865875 198.192474 276.073975 303.591583 232.674896 371.816772 266.529633 212.765640 274.025970 203.288986 301.742645 167.764053 363.937592 145.888733 307.861786 230.167191 264.481201 261.408203 309.696655 311.710785 256.230133 399.706573 169.274292 248.985275 271.490906 318.136932 239.245758 231.262665 304.821655 277.465179 95.969505 364.801788 289.592438 230.351028 293.865051 325.710999 268.515015 221.128128 318.451965 164.039917 186.234726 215.868759 313.716919 360.060730 387.309753 196.673981 264.171936 245.714157 291.610046 263.274475 280.826202 309.295624 261.290619 231.625641 259.869751 259.293030 369.952820 357.160675 319.169281 194.596451 183.789490 248.647354 231.731613 177.437836 322.456177 333.387787 352.381744 323.921967 287.883789 465.686249 311.266205 299.316650 286.599640 186.194733 334.516754 296.998901 
Conv_158_param_0 451.805695 308.059967 296.559631 323.061920 352.432892 437.878265 300.469879 166.770187 521.456604 327.763184 337.624847 331.310364 563.710876 344.556061 356.118073 137.262421 211.863358 260.444641 137.550095 481.537384 344.205322 426.759796 330.501587 271.932800 174.859024 386.779510 356.173187 194.807678 369.224457 341.312653 316.207886 184.690399 289.841888 146.894897 164.522064 297.820160 387.756134 227.355240 441.881775 451.617767 157.757858 391.148804 322.047791 468.824524 588.570251 445.863190 333.426544 194.720352 248.097641 384.112091 261.028015 472.589294 511.010742 181.942627 457.808258 338.014221 410.705902 345.651337 381.593719 314.087646 294.047821 391.573578 446.067993 121.011864 305.674500 287.685913 320.672668 507.930054 415.624084 275.201355 282.285706 391.533173 227.982590 274.588531 419.135437 302.467651 213.577377 383.062805 345.517120 452.962799 291.112732 366.505890 286.980347 443.351349 201.758896 317.489624 296.182495 376.272095 390.435669 345.862579 236.400146 421.011261 350.888184 372.870026 370.862366 315.361542 316.811127 236.684677 330.442841 254.992249 265.061310 316.543030 394.886871 312.657715 378.198639 287.605011 273.660400 330.687469 354.964844 286.381256 280.020111 322.007904 211.405777 397.576538 236.716644 356.522064 366.595001 370.004211 455.443268 394.339020 333.648132 432.961395 167.037262 199.916458 412.337097 443.634583 440.439911 278.324646 470.367554 320.747375 337.769318 208.211655 373.483124 306.105560 308.530273 266.229187 320.282135 385.816772 145.434296 335.207794 401.850128 480.994202 341.501678 316.746735 164.744400 212.409393 237.676422 301.710724 221.580261 395.985199 243.669601 199.154602 260.428619 425.981323 318.598938 358.047028 435.292389 350.183777 246.510391 287.754730 340.086182 327.855438 329.199249 366.743866 372.617645 332.623810 388.052399 248.077881 319.635834 236.031891 118.959343 343.004547 373.086121 237.754776 416.806763 325.651154 285.355530 329.155182 326.241180 345.123474 414.450623 293.239929 377.644287 382.121124 325.627472 420.386932 316.436615 302.354370 419.082886 306.559296 568.614014 512.236572 340.325989 465.285583 328.880249 409.767548 169.026749 381.821381 348.851196 441.431030 343.623657 289.135223 198.177063 435.509186 294.672699 270.376617 404.049591 274.607513 346.408356 253.175491 345.024841 319.475616 329.584106 267.308990 375.169434 351.057526 339.678650 242.072525 327.206390 225.795197 271.105865 131.028458 390.436951 471.353821 307.682831 241.420349 279.660675 287.948456 420.808746 395.164734 317.731750 501.364563 369.119751 385.988556 533.625000 375.058838 462.123657 237.604950 274.448456 246.878281 328.881653 319.414856 434.259552 232.356873 431.328064 329.088623 353.816437 250.412247 457.479004 267.829834 331.972565 324.673462 526.371948 470.741302 505.235443 397.795990 375.056854 170.557861 188.593643 289.768188 230.928101 160.658798 173.296677 359.883026 535.053528 428.780609 287.349670 430.253693 410.018585 389.121155 304.615387 410.063446 358.012817 279.781250 304.795227 312.418213 216.617493 539.497498 342.390045 167.202682 350.494507 538.195190 332.838196 331.522400 366.476746 306.715240 536.223328 186.429016 383.657410 139.810089 312.207855 360.882294 382.395752 316.460938 440.604034 262.797699 351.837341 192.889862 453.025146 294.609650 105.113846 393.464020 280.660309 301.385925 346.990265 379.165985 353.617828 293.266602 419.124420 510.870819 432.588440 475.429596 481.366608 388.734894 216.035690 336.302277 313.044556 407.020782 382.537201 641.057434 414.786865 332.888336 165.550858 346.878387 442.473846 306.354065 494.002228 229.185944 439.076294 185.819412 345.066132 434.703522 428.181213 301.353485 577.041504 373.617950 406.190033 264.545654 257.462097 327.125916 223.473419 204.244705 505.883789 407.730377 524.622192 372.287903 289.067902 315.603699 343.169586 543.495361 452.812866 255.077499 292.793182 359.962738 505.151001 437.547913 291.332184 244.219330 159.700027 274.140747 304.597748 408.535217 317.551788 431.150085 324.839050 404.793823 341.256744 511.271332 422.997620 483.172791 374.442657 338.395111 387.875427 123.951546 419.187622 545.258484 356.424500 262.304443 244.731430 290.512665 233.400833 404.231415 374.135956 285.754700 435.990356 213.428558 391.305115 208.106308 301.115021 291.450317 189.041016 385.010071 499.380249 522.875671 413.124359 411.066406 596.759216 363.927368 300.216522 365.088165 392.038391 235.596802 366.852325 288.821869 183.892868 351.333313 288.933563 356.069916 379.755554 339.749756 426.041962 402.566254 419.237366 340.726807 223.851212 146.807465 456.211670 166.134369 402.986633 359.749054 271.193573 375.456207 441.387054 292.040466 265.008087 378.341370 252.255066 368.980194 240.869247 448.182587 394.847321 374.314301 411.480652 404.209595 355.934540 273.592133 368.014893 332.872925 280.497589 267.190765 264.607574 420.746460 494.126801 231.848892 89.600868 307.578766 364.345306 178.788742 298.855133 381.082214 272.794800 267.741333 299.059509 340.660706 607.337585 374.972595 499.958344 402.922333 315.679047 407.783691 302.707306 355.823792 267.645660 461.216431 331.910461 402.577728 302.658295 524.932434 354.073608 402.173370 287.198029 250.750427 339.491882 397.444519 323.110504 341.925598 359.081207 379.450928 245.378876 429.743988 319.233673 444.756866 427.503571 307.781921 478.107574 369.214325 334.701843 153.434372 125.413086 367.837769 344.514862 359.085907 373.161102 298.663757 229.425339 182.000626 262.220398 319.751068 345.289825 384.879974 452.600739 199.940750 392.149597 364.827026 355.880554 368.591705 364.854858 326.956726 363.264160 374.708649 350.045593 412.250580 
Conv_161_param_0 699.262146 362.887177 723.346069 261.751953 596.310425 750.151062 894.129456 227.321396 515.533569 683.505310 511.175842 735.339539 430.380981 714.244873 600.559387 777.013367 419.909454 832.130798 642.940247 1126.231567 708.129761 533.799011 575.053467 868.615662 499.341675 491.808380 761.310425 378.957214 457.007874 410.978790 453.156921 458.460297 468.494049 563.428589 578.850525 914.489807 609.138245 568.673401 629.785034 783.882629 536.843140 685.910095 397.163300 521.048157 468.137115 674.192322 491.976318 454.570526 863.904236 799.560486 954.064270 751.536560 775.672119 213.275757 519.531189 880.904236 969.585205 393.291229 625.617249 594.998901 210.345245 677.538757 491.088745 866.752563 758.592346 581.934631 296.660522 431.242706 666.698547 498.080383 434.694214 473.315460 428.902832 536.015320 525.946960 299.744751 407.969238 467.892670 748.056763 948.468567 392.244995 571.188599 144.288818 480.308624 883.039917 335.043823 494.229462 886.956543 734.284729 398.441467 512.608093 645.213440 1066.863281 923.429565 739.644836 669.963379 614.882202 418.190369 865.191284 611.861816 883.592041 731.906860 413.490509 1029.265137 603.437988 1090.444214 628.228882 915.381348 481.711029 762.653137 668.699524 547.402771 465.547607 524.514771 528.197449 718.761841 577.248169 483.457672 1060.967163 580.893250 1000.381531 354.084717 980.960693 333.911652 806.204285 429.498199 590.125488 439.981842 907.959656 805.186462 520.872131 781.506226 325.196869 659.974243 671.525330 315.642395 503.492310 326.171814 554.720703 750.775940 390.344299 608.583069 508.824615 532.121765 572.528137 625.288696 288.081024 537.190308 592.420288 612.085144 569.790833 624.306824 341.702637 802.058716 794.777466 586.750549 983.941101 813.629456 628.847534 665.580078 551.445007 578.206726 451.100067 741.693237 427.491547 386.602234 800.790466 903.382874 479.215729 633.827393 531.403076 424.350861 714.142395 734.372009 565.240479 768.900696 275.041321 903.987610 556.820496 769.075012 693.398987 434.463745 565.285706 423.605072 587.289490 604.869507 403.651489 613.431335 782.153687 546.154114 651.737915 1195.959961 472.598267 705.617493 237.359238 651.010315 913.807190 412.590881 599.069397 321.501526 287.770752 300.879852 740.667175 542.351746 1180.357788 890.183960 632.186707 530.480591 599.748657 815.302185 324.089996 816.233948 543.897400 569.728577 452.079346 653.305420 1004.580139 248.996094 866.994141 698.011841 841.975098 727.702393 707.432129 621.395081 509.001648 586.710815 833.789185 255.068359 484.157654 600.605347 658.133850 326.027435 467.023041 613.591736 449.665436 634.284973 784.070435 528.256714 505.234192 575.899963 699.290771 632.662231 320.784851 396.477112 447.942841 457.684692 519.815918 965.634888 499.015228 521.628784 511.913940 745.767883 555.294312 177.576736 593.677246 896.859924 
Conv_167_param_0 852.904175 489.414612 275.490631 358.558044 450.521149 372.278778 311.127441 241.559082 337.354797 385.048767 468.400482 323.914886 380.110321 776.133545 677.369690 384.054291 462.820007 551.429993 390.600006 666.013489 418.764923 520.936462 530.125977 582.925537 428.026276 296.194763 508.443604 387.388153 362.765839 255.970215 404.206909 384.217499 427.652740 382.256958 435.271851 686.089844 426.298279 778.914612 685.293762 646.100525 382.599609 388.295074 233.516174 423.888275 414.057648 404.637787 444.702026 365.952606 565.321777 730.984009 399.636292 555.786194 441.531525 734.239624 238.204880 548.381165 432.831329 572.435913 310.399017 310.566315 451.470367 467.745422 489.617828 339.684845 502.455902 140.232498 458.488373 421.395477 156.134598 426.576721 453.211914 445.322937 340.526642 449.022736 450.926941 322.790833 339.698853 408.852112 478.587372 520.033630 1097.803833 530.360046 480.880341 265.642029 364.865387 475.546143 343.975922 512.970825 312.322510 724.583069 297.427368 370.502167 414.493805 697.255188 418.273193 463.921478 614.882935 433.629456 276.613708 666.845642 216.712997 276.603058 425.900085 450.950317 859.172424 420.855957 512.313293 313.013245 333.251465 454.632477 273.904541 468.549927 289.881744 552.857727 505.486481 441.754486 332.205078 595.410156 421.020172 500.903076 342.156281 389.853729 325.792694 219.978271 448.419678 239.716614 407.739197 370.633453 
Conv_170_param_0 244.445068 168.715378 114.386047 114.202316 53.363918 133.264297 177.262436 137.195206 148.496948 168.954224 140.974609 99.776062 129.196381 146.372787 122.491844 135.305649 184.305664 128.081314 132.487854 99.961655 115.882133 120.183502 96.574295 92.096725 199.644806 195.052826 134.304840 124.344803 118.361336 166.925369 180.889435 187.925034 148.556595 133.370911 100.191940 80.796783 185.651459 220.079742 118.256317 191.862473 165.391647 128.206085 154.325043 186.567764 147.865021 157.559937 97.054466 140.010681 180.064911 95.454155 124.452209 132.592758 119.089859 260.199615 117.744308 160.593445 103.720139 121.434509 180.067139 118.680954 98.464340 183.292969 130.719330 95.907761 148.330292 140.095978 118.305168 105.275574 221.803207 216.713562 173.451080 228.015411 244.199677 228.379807 189.832336 121.553177 262.592712 114.539345 169.752716 272.851868 112.787743 252.296646 121.445526 102.019676 90.675110 116.191574 135.072586 224.523712 274.025452 107.899811 136.770325 212.896027 176.136063 169.022827 173.729553 126.711517 125.928917 195.666565 201.227646 142.900345 200.875504 96.419838 80.858223 208.258759 155.622803 201.302811 136.395889 106.188576 156.803055 113.631721 211.237152 167.815430 226.883392 116.616302 93.445564 73.680840 104.369164 128.027481 225.111145 100.269058 119.152702 159.709747 161.662338 86.952049 215.188873 123.518555 159.204773 94.434044 
Conv_173_param_0 92.204697 206.367859 174.635925 135.241119 224.060684 256.248688 273.154175 168.275345 70.096466 124.155342 124.833794 354.619751 151.160416 121.604797 331.956909 228.100189 116.322121 193.851166 168.300095 122.758789 185.393860 254.128799 240.601349 144.117966 149.759750 108.946045 274.282257 86.062592 163.647690 238.423401 196.609634 237.667404 110.349281 149.259506 123.818932 198.957748 147.878418 189.565491 258.553467 349.852356 204.637650 150.548309 104.942497 184.702209 152.150162 111.337952 176.086319 127.204437 157.632080 201.667679 201.138855 143.216400 100.228287 71.770416 175.062714 296.702515 168.554657 108.268234 169.049057 111.168755 152.209351 85.489799 306.728027 140.003555 96.656593 184.790787 73.892174 139.293121 129.476242 218.199448 200.918335 144.939499 332.459839 305.494934 132.986786 215.476608 279.470276 115.090965 349.061493 119.678032 86.924744 217.823944 240.562653 148.280502 221.612930 169.000198 203.762726 248.060120 206.777710 106.686775 96.822227 171.262756 168.968536 139.352203 139.207993 116.669296 336.310852 261.988464 192.693237 351.574036 156.935898 235.463348 174.397461 486.727325 214.547424 310.089691 62.117245 158.413010 195.649368 247.832581 157.017761 157.196243 254.365219 120.025284 256.112000 85.772049 96.296982 213.160980 245.483307 148.744217 86.894722 224.647736 207.738953 178.899841 92.564415 216.933578 85.083183 93.848434 
Conv_176_param_0 529.896729 296.099213 481.836151 312.668762 579.026733 433.944916 428.556854 468.624329 522.161133 336.354523 406.605377 339.080139 387.111176 652.147583 575.378784 433.160736 516.123535 483.053558 358.797455 391.603241 791.509033 700.558411 646.747559 432.080658 924.012573 325.795746 467.232941 363.751556 338.427094 450.147125 411.633026 519.886841 316.278809 604.520691 323.430786 305.954468 948.621887 335.835083 746.063965 379.046448 457.920563 461.369141 475.626190 407.529816 433.828125 312.433685 699.000916 413.688812 499.657715 307.402618 555.508423 309.228180 563.502686 565.372925 645.955200 220.904678 212.854538 411.182404 453.353180 155.296616 294.574463 543.694702 421.992218 287.562439 329.223633 243.438416 425.692108 381.465118 845.322266 650.505859 486.334137 260.403351 466.784027 475.980072 453.527008 733.475159 793.328491 654.693481 484.467712 446.392181 322.053223 273.354401 238.231079 599.835144 367.067017 612.212036 367.153351 599.481873 291.954315 258.514435 315.910614 525.083374 416.869720 531.583801 393.121704 495.225769 415.937500 679.841187 275.160522 297.751465 406.264191 674.620850 357.953918 463.892578 649.794312 522.868408 499.717255 426.607880 457.905945 594.753052 297.792816 342.950653 452.229401 418.892426 550.815002 345.902771 371.912598 426.943970 569.881897 785.204834 575.576294 372.137939 351.408905 382.405243 388.244019 332.182281 725.003601 388.019440 
Conv_180_param_0 339.935791 209.906631 302.295776 304.545288 424.220123 213.040451 411.817291 212.636292 223.810059 370.549835 244.583496 401.475159 298.432220 323.034790 453.131866 249.911438 199.075180 117.544891 336.351685 221.153717 228.145050 379.211029 255.132492 383.376587 177.151794 308.091248 310.094666 198.895920 552.286133 299.019623 343.295197 308.794434 418.098816 358.990967 126.117126 156.739029 261.186676 158.581604 224.954376 165.916168 408.000732 179.159180 201.100296 199.142792 312.863953 176.613205 148.326660 340.382416 294.292877 479.237061 203.911484 207.974518 557.517029 225.107758 187.164581 258.305695 130.490570 185.730423 246.196198 204.525955 310.067078 202.214417 412.748077 239.851913 293.055847 171.188873 160.979370 280.599670 215.660416 311.535004 158.161957 380.094574 179.327820 153.502502 335.582306 165.630737 218.726318 222.014404 326.416412 166.279007 359.787231 153.207901 187.752167 145.193130 229.963409 408.415802 185.528976 270.958466 435.114197 167.266373 501.923035 219.017059 135.714188 295.239105 279.791534 288.545441 242.397736 342.530945 439.687317 296.868927 227.217331 275.836182 319.540192 445.828461 258.668243 158.559875 251.218323 208.955994 296.620178 360.093781 201.172516 305.439087 119.409157 167.503754 252.317291 168.234802 252.243500 161.729568 241.928909 491.183746 505.225739 220.392471 234.333344 193.462799 324.023712 171.174881 361.252289 206.311462 143.277115 389.348999 218.235672 490.047668 217.334000 326.098267 319.680725 168.606171 176.022766 218.684433 255.781845 266.595062 158.518234 282.339294 225.699722 285.818054 205.882416 273.218872 173.515900 298.449524 309.775024 191.140335 235.206589 148.984131 172.644638 228.637100 220.112137 225.584824 222.299271 460.118713 268.684937 359.871643 421.951599 168.569870 200.956345 216.437210 188.173828 186.678680 172.416794 133.204544 351.123810 348.606018 217.768860 310.577484 363.321869 196.264999 253.876068 142.760391 184.291351 237.004013 288.269226 334.467834 155.375061 296.726288 232.322845 257.137054 385.890259 211.232513 239.589401 178.127182 230.520798 399.342590 249.879135 136.552094 188.830978 208.511292 317.868774 173.787811 210.086639 221.066437 233.739716 132.337219 220.070312 129.956940 378.827850 290.132324 276.505432 223.011307 178.067337 276.690155 202.182648 139.420380 157.933273 237.638229 398.773529 268.122833 288.105530 214.041550 165.240768 315.065216 168.599823 207.655884 224.007019 193.972214 321.916534 204.898941 267.317993 280.544495 222.224289 226.896851 272.139618 211.060272 205.788574 380.090302 272.674469 179.866104 186.511887 303.998962 298.979095 403.712097 361.107513 140.372513 249.660599 319.246094 399.066711 351.590698 428.755371 145.964813 210.918350 293.379303 280.028870 232.003250 301.724274 218.710709 345.361084 285.729889 236.267944 398.331573 
Conv_183_param_0 366.844543 741.194092 638.681946 386.581940 526.617981 509.149078 272.993408 532.192627 295.638733 1156.292480 323.797607 140.056168 487.647888 643.519470 273.029297 468.778687 289.708649 511.037109 357.235016 788.097229 596.114990 387.165070 602.483704 329.347534 420.054688 425.484467 470.446625 456.268799 478.141998 310.063751 418.078430 457.326874 362.824707 254.778824 981.927002 366.263916 595.925476 416.549408 218.177353 562.385010 340.051270 282.884003 579.275452 523.800110 442.070679 678.487549 695.087463 250.161865 732.389343 684.792114 689.712830 565.760071 459.570007 290.644012 615.777466 370.665680 447.001923 793.652954 498.802216 482.654358 752.423645 481.726288 415.111694 815.353760 603.677063 980.627808 400.078125 482.067261 303.916504 535.204773 270.706848 323.752869 773.904602 417.239716 608.358215 619.148376 525.432495 622.992310 310.150665 896.140686 393.548218 457.030914 299.518707 376.310211 522.783691 511.197937 492.705505 256.703979 235.624893 353.024231 308.808044 303.423615 458.119354 264.740082 589.136475 510.164185 455.598999 388.527802 343.440063 393.265625 282.102020 215.178055 348.546661 833.289734 815.206238 409.153198 284.169678 225.748932 466.000244 566.276794 489.574402 1098.364502 176.501480 590.637695 309.646149 203.190277 334.912537 489.264771 439.229889 390.177490 450.773590 479.551636 401.626404 647.208435 446.404938 391.394257 493.841858 248.613785 
Conv_189_param_0 330.621948 309.476379 702.131470 277.434906 373.708099 328.597137 269.829620 440.311890 492.270599 225.617676 464.963867 397.313354 870.020447 590.339539 638.341064 336.041473 293.587402 382.027100 279.242249 427.887634 448.812988 331.239441 193.786316 272.624603 360.169952 427.581238 290.412689 785.394836 450.117615 557.983948 151.660431 542.893005 306.509399 1296.965210 683.398743 976.240295 516.900391 388.523895 423.543060 1215.907104 385.940674 425.322968 831.546448 279.840485 220.663818 701.437439 285.524445 457.898712 490.889008 404.437164 307.614075 569.910400 453.544403 664.516235 343.468170 345.846222 331.575531 939.255371 290.083801 302.440582 355.032654 356.695099 534.379883 630.350037 
Conv_192_param_0 108.011108 135.171478 78.497025 128.255890 79.281235 55.935265 81.323051 174.954453 76.102608 69.834053 73.009735 61.751690 166.577911 240.796539 50.110130 81.265991 60.643284 127.744453 147.507721 171.193085 68.084114 100.206818 61.568733 79.568756 126.422043 123.443657 46.688438 82.940048 123.953949 108.135277 102.749886 53.390865 73.298439 57.180470 57.164623 68.466980 107.835350 112.474564 87.614662 95.656036 52.735085 86.240608 63.213120 119.496674 82.617035 79.969582 60.328823 149.483643 73.167580 79.743599 103.720596 178.705078 45.550800 103.130882 190.426056 153.129639 133.131836 132.228241 87.013023 206.570267 73.327225 100.057320 67.621964 108.868439 
Conv_195_param_0 100.370316 83.526573 142.961853 64.153801 187.357162 94.955193 132.482712 153.410492 89.274506 114.114471 105.994408 99.262268 152.503235 88.484825 104.824280 204.085587 113.564323 112.641479 335.623840 54.604721 100.322121 128.427368 195.501434 70.844643 136.378326 85.514648 127.248863 46.876839 30.287807 118.187241 133.008224 138.123535 105.742157 96.973366 107.262299 139.759842 60.887447 91.553307 67.358177 95.647781 193.217667 137.185028 104.805420 90.847466 92.074463 110.538673 122.553856 150.395645 73.788391 199.443436 89.734428 85.062744 123.636368 69.843552 133.707581 106.279938 190.959442 92.569153 166.901505 62.250088 60.954853 105.836632 121.492653 143.129501 
Conv_198_param_0 368.842651 529.022095 528.562866 465.812042 494.491547 355.835602 211.717499 570.169434 362.841705 430.667175 382.100494 365.811920 523.048340 460.919220 428.317535 423.744873 218.072021 236.387085 259.990997 409.772552 521.551208 508.703094 315.815918 540.368286 425.690704 496.697693 548.974060 561.708130 264.636627 662.141418 332.108368 409.675812 530.312988 614.850098 297.881195 304.231598 219.356201 440.672424 362.669525 509.969757 415.532684 636.139221 420.616608 597.537964 408.656677 381.787903 318.549866 925.002869 314.067505 567.549561 458.474609 756.914124 511.145844 487.218567 388.653656 449.548706 534.447998 430.614502 496.524597 227.394547 434.019043 373.500977 456.447235 422.015778 
Conv_202_param_0 248.505142 226.650253 575.747986 297.695648 259.041656 301.647217 100.769676 232.545090 102.667664 345.574432 292.204224 360.981995 126.472725 159.926559 200.656769 186.569290 160.253387 300.820099 167.742401 160.534088 382.854797 218.176071 204.353745 121.499313 62.757587 143.248062 566.977661 84.860367 148.730453 538.280640 101.779556 310.691437 974.119385 373.460815 112.650047 335.888367 234.346283 150.946762 147.850845 463.707886 193.778290 118.381065 113.869888 329.854553 133.893005 124.130135 454.334137 86.935028 205.234833 465.582306 455.958496 146.466339 229.987915 64.877235 112.047401 338.469330 138.539383 313.348175 253.610214 127.059624 500.492096 185.622269 86.857994 114.372513 386.635956 364.171600 320.271667 158.581436 116.809547 437.525970 216.393906 93.023689 217.234375 90.963188 241.106430 508.572113 132.911911 82.683456 220.195572 252.604691 336.389679 126.673286 272.732300 994.488586 77.652390 248.158844 242.531082 85.232468 404.877014 154.354843 402.329681 399.628113 207.611877 391.228119 214.611557 81.484535 204.693329 455.992035 81.635773 209.595184 285.311554 406.878571 136.778641 548.523254 647.999573 414.468170 171.237915 204.550659 394.880737 233.402863 445.833710 82.916115 381.133118 136.148361 254.076462 79.182426 107.676117 373.957214 374.311981 241.802811 290.272827 331.600677 73.296242 226.688187 770.053284 452.134644 433.298248 413.391235 
Conv_205_param_0 1545.415527 713.858582 315.396545 613.529419 1149.681641 1033.751709 822.414246 2679.844971 674.058899 495.160522 1768.951660 451.683960 1166.753540 900.261108 1138.902222 1024.202637 833.539246 567.845459 581.593750 3005.920898 540.354797 572.840698 720.962341 667.598694 5462.053711 477.150818 1013.957458 577.701416 1046.055420 782.372803 1202.890503 903.469421 456.285614 564.610046 801.859131 1239.629395 812.401489 2704.510986 582.819153 1414.554077 1128.609741 452.048828 3408.032471 647.728516 235.481384 1044.319336 932.634155 417.560669 2536.247803 2442.529297 770.775696 817.313782 455.508118 1489.173096 3922.173828 622.519836 4904.790527 1323.315796 2617.403564 656.368286 1339.639038 3280.604004 557.595947 467.365814 755.831177 1288.166870 578.170837 1125.301880 946.818970 1087.718140 3238.940674 1416.787720 5779.151855 1454.943115 530.490784 4817.426270 4487.290039 3569.106689 2635.097412 2720.921143 1073.211670 1275.427734 1191.689453 2480.479980 1259.824585 1188.493042 3611.989746 978.396484 493.443298 1879.724487 1443.085205 673.707886 794.441040 515.170532 418.887665 5277.125977 611.499512 574.296936 1422.702026 966.025818 767.781189 847.869995 1672.998535 789.768188 688.726685 655.140137 579.121704 614.213684 682.384766 374.112000 760.406311 676.502930 480.595428 1347.088135 983.492920 1319.722412 1613.043457 1680.293945 460.478271 882.141174 760.481262 1326.360107 557.062500 781.771240 468.722229 2745.018799 3333.759033 842.680481 
Conv_209_param_0 248.726456 316.278351 284.716492 304.708557 244.686172 340.460327 309.734894 276.995270 276.648285 125.450111 276.615540 146.805923 233.409195 405.693573 196.835251 163.617691 258.949951 178.938416 129.700806 241.826477 303.710754 323.160736 288.625671 192.482819 231.115738 270.275085 199.685089 325.102478 277.767273 315.311096 324.139496 156.558228 241.837006 123.203430 220.698883 291.929474 255.958405 366.928925 236.018585 275.025787 175.344101 267.802185 191.965942 282.378601 328.282318 331.114227 322.266785 123.507172 163.416077 406.381775 477.264160 272.886139 334.406982 189.642441 115.603905 261.770874 157.422943 311.132324 351.585815 219.672073 236.970016 274.863464 268.551575 115.158783 254.452362 209.050705 317.975677 204.332581 304.117584 180.795135 230.570999 237.851379 223.495499 339.111847 349.298309 295.108063 176.556595 211.436829 276.198822 331.405884 213.098648 207.988037 289.005524 253.097443 206.667450 253.507492 294.394836 280.802002 239.899811 279.329987 230.028030 222.585526 273.793030 257.251465 338.397888 343.646210 129.628036 252.850082 184.702423 284.188080 301.488281 199.588074 325.797974 176.617767 428.254333 268.665497 268.570374 180.244232 222.036407 147.057358 213.624725 131.374954 270.620972 201.703018 245.212006 253.520828 285.577148 344.194885 180.726059 268.689148 304.678284 223.742844 318.326050 275.935181 318.063354 131.513580 191.225800 174.661163 
Conv_212_param_0 220.034760 223.493607 110.049919 242.762955 291.073364 131.771530 111.862526 140.201477 122.156036 178.554062 244.682388 233.960464 103.080727 211.019974 272.318115 194.727631 211.878693 120.384216 349.380005 300.423798 182.698395 297.137421 301.721680 214.898315 147.154785 194.936783 155.140579 159.581741 137.256516 263.475372 126.201698 158.044968 248.900894 195.674683 185.849579 216.689865 400.348541 153.873001 215.510498 315.748962 150.934464 301.122070 217.173462 288.271179 222.189774 179.552368 355.847778 83.345619 310.119690 309.867493 304.044800 366.606873 244.279831 248.838867 101.456291 212.679672 139.413742 148.881882 263.933472 107.575195 580.208069 154.272385 244.941467 119.055923 197.689423 189.191956 141.640930 263.354919 144.773575 324.998840 184.673508 95.802078 313.638031 297.864868 493.482666 229.070587 292.763214 393.333344 88.850327 150.537949 279.180328 311.545868 234.885239 237.151642 304.495026 291.424347 222.121918 300.199036 206.753021 230.882721 123.852859 333.465363 221.126358 213.652512 116.910904 177.685944 224.289490 185.512543 200.329681 148.741760 234.445099 348.463745 167.537598 411.406525 320.354065 374.000824 269.502441 152.027069 111.879646 264.560455 256.863373 277.786011 275.863129 244.228088 228.603714 362.662903 264.410706 306.061035 136.390991 220.662033 168.181946 165.706009 150.443344 152.275787 273.164612 146.191925 208.255051 263.949280 
Conv_215_param_0 261.765076 119.443756 110.344643 121.975670 104.023064 76.996170 54.253151 189.756439 93.091881 65.687965 102.229317 96.907684 275.998688 107.150124 92.080910 111.075676 159.354065 83.651802 387.181580 173.159210 160.109253 119.221497 91.947754 132.763306 131.587738 57.196152 70.945961 61.400837 85.764717 108.073250 328.238647 123.665810 202.821136 92.008698 145.622818 204.296448 274.100281 159.730728 76.231995 92.019249 160.853333 101.837830 81.847687 109.423698 139.778595 112.474373 276.614899 131.472229 59.622906 89.883232 112.924179 128.684006 104.925613 171.694580 137.988770 153.732986 142.765961 124.667793 84.236549 84.493385 110.539024 90.773888 81.332115 144.880386 139.934799 78.227692 147.867188 75.177826 77.903488 120.237083 87.644852 102.221756 59.720245 95.343384 204.910019 89.453461 61.006062 74.000916 81.044502 245.235565 199.105713 63.892986 116.452660 150.725586 60.801006 157.238449 57.203651 83.226242 119.397835 150.659286 79.111092 102.992500 159.678131 110.220024 191.303802 119.463188 145.775955 70.896935 69.790977 136.387497 73.586632 123.765602 284.930939 54.889145 68.851089 126.560913 86.603302 83.331673 100.771790 143.959229 96.070679 86.426018 61.308891 109.506668 60.460152 65.090767 130.546585 258.881256 77.657654 137.999985 133.542572 104.326653 134.949768 120.930733 153.702042 101.111176 69.827034 88.205330 
Conv_218_param_0 627.536621 554.377747 934.728943 516.049927 496.274841 162.920502 559.901245 577.973389 543.785583 622.308777 311.255951 412.772583 622.258606 700.461426 285.092773 495.733551 492.862610 288.233917 557.474854 501.763702 655.248596 368.617157 411.319153 643.609924 512.141846 424.560150 240.727295 381.784058 367.556641 543.566650 519.901001 296.122620 489.560303 507.020111 532.268677 469.484314 369.890015 329.377960 492.763611 485.968475 330.319977 172.788589 534.910950 462.359863 412.456787 512.720154 85.417114 458.485107 475.627472 474.617065 524.031494 399.520691 158.714813 339.669098 206.748779 443.226318 524.667175 469.686279 265.086761 429.132080 240.394257 515.251404 355.399506 604.323486 546.068726 484.061798 327.119232 552.348816 197.115891 565.696167 528.200073 527.166321 548.909485 712.506409 434.710754 304.928680 440.595459 698.748840 393.830200 278.281189 281.726898 674.990967 555.584045 323.439545 741.006836 408.191193 390.376099 550.628845 407.453094 595.864319 506.437439 646.579956 615.570557 503.347778 295.822723 501.712708 197.949677 301.978424 209.034836 727.544800 408.625702 501.764526 339.666809 433.110718 698.141174 224.879898 372.748962 330.319550 286.313416 544.937744 358.295593 294.778809 297.514465 260.317902 442.742767 373.752441 508.513885 632.253540 363.586609 327.403717 376.522278 317.956421 623.007629 518.209839 530.628723 861.314514 368.858002 650.183411 
Conv_222_param_0 238.547333 417.917145 1768.695801 176.236740 89.210251 85.518059 167.035828 307.370239 517.426941 335.559265 171.476074 797.281799 383.227570 244.512421 372.126678 677.280212 196.022705 512.525085 315.565887 325.538483 629.646057 197.208298 76.377113 54.142059 857.845154 229.898010 821.637451 807.111084 238.097900 257.182098 644.199341 309.005157 365.018066 374.243195 216.783600 812.483582 243.387558 298.535370 193.063080 410.448303 295.764984 266.258759 602.628357 140.878616 239.508987 323.495056 111.763611 536.530457 787.115051 68.087509 549.168762 164.723404 169.874207 320.349182 332.514374 192.725113 157.957321 157.788559 532.601440 175.940735 295.057800 699.442627 246.108856 90.301147 183.579651 677.780518 321.692474 293.110107 519.936523 508.979126 386.132874 117.564194 99.677917 91.237495 449.134186 300.976562 370.350769 155.477768 157.264557 309.209015 216.317856 282.359863 655.767578 704.355835 188.471344 301.446014 212.917679 88.802078 431.299164 156.611221 508.193481 152.745453 682.689697 306.221710 140.212631 199.854492 651.130005 188.837921 143.531311 331.130554 797.603149 120.381523 376.584198 166.165726 526.893250 345.972534 675.158142 433.241241 674.933472 124.909317 211.416443 119.625107 799.778687 146.805145 223.150070 1225.638306 206.228836 325.759735 464.549255 222.951736 188.987640 285.351654 748.546448 202.331238 206.343292 198.874146 145.500565 387.187744 152.080978 354.045563 196.567810 232.857544 393.430023 171.676804 322.709808 766.086487 152.948425 523.919922 489.788452 732.937134 256.447784 486.980652 265.557007 251.435623 391.398102 572.986938 296.009552 360.896667 187.051849 297.828644 345.916656 770.124756 200.256378 329.079590 237.952164 202.338791 141.413864 437.728027 456.061951 376.662964 203.109558 833.378723 74.114304 233.130630 220.359543 420.588623 459.818024 328.205872 304.463806 440.545319 581.698059 175.657730 160.095703 75.129318 177.623459 333.278717 347.352112 542.724609 303.143494 208.366074 284.653625 591.345764 177.769882 324.233978 553.528748 351.574890 258.879211 308.054291 877.515198 363.261383 275.840485 1123.214844 651.307800 646.127930 539.425354 192.403244 399.065826 535.781982 154.805298 683.264282 245.001175 550.711670 519.811951 732.744690 133.494247 152.673798 108.899529 365.358917 419.971405 149.913498 129.468094 178.867676 608.759155 395.072357 73.526398 247.471451 340.594818 278.621155 233.135086 293.627502 380.615479 300.270416 196.694687 352.587372 397.612549 539.791870 204.050339 166.815063 221.278671 213.318588 619.543335 195.624832 771.330750 211.120422 737.452087 813.789185 196.957581 567.309326 286.595673 438.502228 180.099243 584.396729 191.717300 198.924835 431.960968 492.114838 158.858704 387.951202 501.680115 109.458206 277.616394 405.334198 118.732086 909.171448 294.494415 567.778748 
Conv_225_param_0 1970.779663 1413.664429 913.247681 520.228821 782.235840 845.220520 2445.458984 681.714783 1053.077148 1559.988525 1202.768677 544.506653 4341.638672 3303.016846 3954.239502 1074.613892 668.916321 1040.452148 1870.169800 336.542572 946.956970 937.975769 555.906677 553.485352 531.544556 603.361267 2157.911865 552.065613 530.962830 2340.469482 3820.653564 593.740356 907.402588 651.195618 297.176605 2554.267822 1097.289185 1101.106445 1147.427246 362.944885 852.955566 694.647034 734.817261 1819.388428 720.193542 717.190918 1151.545410 1755.803711 882.875916 836.518311 1149.317139 2061.741943 185.249649 679.592834 1213.322998 801.201294 2940.748779 2370.646240 679.446838 994.548340 298.597809 1686.934814 512.646240 604.779846 1175.332031 643.109497 461.360077 558.393555 1084.352295 2855.395020 1156.429932 1837.296631 718.650635 1006.064453 2598.946289 935.109802 864.470947 1360.047974 989.533325 1080.885498 423.442505 1443.889038 388.114319 1332.744629 711.494263 628.974976 3114.726562 6239.159668 3041.718994 881.344910 714.063049 1414.781738 1955.101196 854.736877 319.107819 310.925385 903.013489 4771.424805 387.804932 697.567444 1922.353760 1594.180176 621.735046 364.797607 488.927765 577.449768 2379.714111 1367.661377 763.965149 466.619873 599.587646 2177.465088 2548.620361 659.175354 743.238220 849.836243 1899.026001 1184.146851 2936.720703 712.255737 3121.333984 764.730103 518.268616 475.098358 827.465393 375.341644 988.857544 4037.033447 587.932678 2008.062744 2613.336914 826.400635 1328.382446 265.273956 678.506042 918.982910 2033.551025 669.160828 3978.508545 970.503845 962.564575 515.522278 5189.487305 528.844116 970.733154 602.071411 568.203064 1058.203979 719.922180 1158.637695 237.449203 551.324890 2248.079834 4899.005859 592.066284 1708.886108 2827.142090 721.471375 3250.444580 1660.576782 463.978302 625.091675 2071.131348 2369.998291 530.778870 3806.641602 400.720764 1540.564819 911.565674 396.509277 409.953186 398.318176 1833.443726 524.994934 2227.920410 542.130859 406.123077 2655.009277 1469.119141 2375.617188 759.856689 901.358765 2630.513428 1083.169189 281.196136 1405.187256 695.988464 706.243652 2628.286377 4557.826172 455.800262 612.818542 468.427002 742.693237 3941.331787 486.815643 1085.806641 1452.851685 858.812378 1828.185425 1798.972534 1053.656860 2034.265991 742.017456 1013.706299 1162.542969 6785.629395 443.536987 637.836304 947.797729 1666.089355 610.893433 2694.159668 1636.115845 3021.946777 975.683533 2878.108643 1101.333374 601.017761 364.228058 3543.641357 3385.653809 1552.072876 914.769958 288.601501 624.172058 730.152222 461.335022 1165.234619 3225.669189 1420.269409 499.213623 734.799927 1563.044434 2489.403809 990.204712 3379.456055 393.713715 3258.324707 1080.220825 1627.260010 1576.734497 848.660461 522.080933 666.062927 996.576477 460.211761 834.688599 1346.437256 994.900818 729.062561 366.486603 880.860718 1612.467407 1111.948242 503.237701 
Conv_229_param_0 280.805328 439.918213 343.280273 464.011230 264.204163 394.345398 373.892670 283.369843 522.131531 143.695114 427.374084 308.976868 392.119476 244.089157 151.414413 253.897125 291.753845 453.741180 477.065063 316.237061 344.606293 252.989029 523.358887 262.155731 521.650391 576.944336 163.082230 220.572647 326.828888 272.780853 294.265991 278.844177 270.866760 294.091919 458.033417 329.248505 392.030365 307.072510 348.818207 274.868439 177.789764 284.318054 214.817581 331.781219 198.005814 280.652283 330.730652 333.905701 185.785919 467.969269 271.983337 260.219757 285.111694 331.580841 516.800781 353.454742 264.675934 355.261688 256.209778 247.385315 234.402435 506.662415 296.704498 385.796844 350.233643 360.024506 324.565399 586.612671 299.808411 356.516327 301.251587 376.302551 353.494110 274.393463 268.988342 301.501740 389.093475 304.030426 524.595215 808.878296 614.157959 272.677979 219.783920 472.497772 439.031982 283.026978 203.755081 333.459076 285.815765 510.999451 382.356232 329.264679 777.840271 344.761353 212.435837 449.741791 236.843582 280.500183 219.884018 439.666351 304.694550 405.698181 243.902679 567.208252 349.085663 520.081116 364.192444 435.087433 358.942505 317.437103 416.300720 419.756409 319.994873 230.928299 346.448975 408.371948 183.870712 321.955872 323.875702 225.894089 447.143860 483.017670 293.402740 373.174957 212.232330 284.243866 304.909546 376.515778 173.607117 527.203735 261.566681 126.239296 291.387390 476.310974 348.785614 399.703400 415.129974 327.585724 438.686615 526.747192 157.149826 200.795624 306.288239 523.147583 241.884171 493.059235 267.041931 428.621002 409.180756 438.725861 474.846313 333.476685 394.010803 314.433929 439.031555 391.263977 337.297607 285.876740 384.288483 600.382263 351.964630 373.646454 186.157288 299.358734 353.559906 277.052917 258.609802 250.351074 308.027039 137.760117 248.955109 420.879486 376.513763 406.381348 333.456909 326.271149 338.326813 433.296875 224.017014 259.070374 467.617523 254.941437 369.852509 286.951935 243.264618 313.022064 329.862274 258.043976 342.019440 435.639771 240.695129 255.685730 305.962372 419.134857 265.697205 556.704407 294.043091 268.414764 313.669769 248.265976 269.532928 178.920059 337.246246 417.148651 260.403564 338.564514 324.295563 281.435883 185.381180 498.335663 316.391602 396.167603 729.237244 327.612274 249.560913 153.272812 328.581787 331.573181 284.848694 256.644196 275.039551 446.960999 181.714600 438.175232 431.316833 305.071533 336.576477 365.623352 525.925110 475.059448 282.445557 617.982544 353.909851 347.585327 262.985992 369.531647 410.036102 252.513290 313.300140 245.280594 195.314056 189.340942 370.525299 255.606262 271.237366 317.306244 228.571716 197.148514 416.747253 496.711975 208.951538 294.444214 346.252319 376.579498 326.615814 324.262512 
Conv_232_param_0 153.860153 247.230072 128.893417 287.600922 287.451538 259.606995 187.389679 83.709846 284.807190 237.690430 242.441147 231.005371 244.155502 335.285370 359.452332 249.440170 245.915405 251.146103 127.338478 163.403763 400.494019 286.123230 226.166977 244.986115 171.116364 208.342392 262.926392 149.217148 383.981323 213.361496 285.347778 247.900146 163.689529 219.149368 266.341461 233.003510 224.550262 351.529877 183.491837 294.468933 371.268646 297.329987 103.557747 179.857590 405.831848 120.442329 291.621735 311.069458 157.193314 217.016571 235.850754 350.721527 253.277695 342.177979 118.917076 180.792343 215.310318 109.567223 200.270065 83.163933 260.395599 277.371887 202.425613 337.869415 255.015320 387.345642 338.153809 269.073914 236.839981 171.160217 536.674805 369.975342 289.702484 324.854034 400.508026 419.083466 368.827271 236.869019 255.221527 371.472321 337.662628 327.688477 192.573608 245.448151 206.248123 278.402466 326.286377 291.402161 177.996490 281.025208 398.574768 320.641571 284.029877 325.175323 490.012512 239.750046 194.145584 264.425140 367.467560 188.757645 214.210495 159.820358 189.690979 385.829163 309.659912 179.022217 400.180908 295.429443 366.561798 141.711639 310.518677 273.389771 225.143921 437.110260 191.749130 502.764557 139.913010 368.789154 194.981491 409.936890 298.254822 193.815231 261.928192 423.091431 188.112183 288.531647 91.356628 273.374603 284.936096 210.279709 231.097137 298.753113 389.257446 158.696701 305.543793 181.029175 323.291321 454.323517 243.230942 234.928406 245.390060 297.289368 343.743011 167.386887 235.221039 133.967850 200.247910 290.349396 266.664398 195.342377 346.904755 256.599426 175.062408 236.848511 333.602356 197.847504 181.475235 293.211884 412.232208 139.742325 451.918793 298.658234 363.766022 172.972458 171.683304 123.752388 94.879631 204.411530 209.934204 314.063385 371.547516 212.119049 263.024231 375.207153 260.050751 328.915100 321.547791 329.973663 286.690399 158.173080 195.794785 251.508987 136.293015 218.770508 291.907532 371.459045 342.352173 310.122986 519.919495 169.230148 149.587082 446.569153 254.795822 151.180328 315.589844 254.453445 246.686661 288.360535 231.092209 253.438782 317.468292 200.540741 444.806763 260.320465 225.850357 272.513000 271.394806 315.249725 229.616043 299.486603 311.669403 407.999847 415.393158 218.617828 410.667816 361.695129 390.508057 266.491882 327.846985 429.542999 246.144547 327.160217 248.179886 123.935249 446.416351 246.243286 209.112732 239.664322 409.118652 161.249527 334.371338 355.853790 306.947754 192.397339 207.687424 308.243073 345.762421 384.762512 273.587250 480.688629 203.560577 388.573395 210.289474 232.854141 200.552673 189.698441 285.202789 133.937225 159.240143 286.028900 233.955170 219.255966 223.202164 452.688721 420.451141 130.780518 
Conv_235_param_0 231.214691 127.221176 171.018539 232.342270 592.550659 512.032898 175.366638 195.797287 116.541382 200.966217 110.317238 137.800629 288.972717 309.592712 241.175415 287.450226 271.586731 120.450539 189.670700 153.089111 125.592476 211.391754 137.160431 184.218781 155.857758 239.377167 574.584167 209.821335 116.803764 336.387909 207.547577 427.664215 275.434875 224.608856 308.658142 253.108948 776.983154 320.440155 223.441467 730.186707 161.081802 413.793701 317.591705 242.410873 191.806870 232.625656 161.657288 318.724884 198.100479 748.357849 317.354095 393.487518 386.646301 336.656219 234.241043 151.039215 101.305862 229.175018 159.100861 132.607925 214.384552 208.953064 227.231018 142.550461 178.759094 152.282394 170.506149 105.659012 360.923218 126.042450 286.350433 169.169998 369.330566 371.967346 503.810760 191.323212 218.057022 151.447083 152.282272 636.827209 225.579559 332.731232 337.431305 129.990921 427.488281 227.162369 263.903931 307.679962 84.754318 79.705269 198.153641 153.124146 150.383820 111.699867 278.953278 132.875992 375.672546 120.042755 195.056427 311.697357 231.807449 204.292404 257.420441 140.384796 391.953796 412.823883 449.300568 255.154587 320.206299 269.018402 216.873642 263.957886 86.006805 168.552704 156.593536 288.125580 143.153900 117.575829 144.483246 761.205566 316.929443 267.697906 220.421158 202.526337 452.436066 212.977036 63.284435 151.476151 564.664795 430.180267 85.394684 338.959900 190.448959 321.264587 204.005768 299.781769 148.677048 183.648758 132.907394 201.620758 294.365295 396.508179 185.795700 166.552719 181.381348 163.839737 407.178223 127.265137 161.944351 290.008514 294.536591 197.606247 182.357681 302.364655 236.076248 230.602966 176.223419 244.464874 170.450912 434.956177 416.781311 124.200226 432.507507 518.214661 232.519394 260.522522 135.084946 145.347397 133.647583 317.585358 148.885040 302.407349 571.375183 192.783554 203.623932 207.512558 373.388336 653.541748 239.344727 146.384933 200.177811 325.129669 152.542282 123.668411 283.882477 144.883575 558.866638 274.463531 167.655289 167.900284 319.190369 129.023560 133.545746 154.891754 254.755966 186.286301 258.641541 296.265656 121.882126 487.831451 216.182495 430.944427 260.151306 146.094467 463.648041 198.330276 108.850227 155.995377 90.053146 245.421478 358.515564 575.880005 131.207611 219.844727 380.271027 250.158249 137.602463 112.815918 347.574768 473.634369 159.815048 158.028900 98.172165 330.260071 184.352814 237.092392 184.457642 173.496643 174.740051 133.155106 128.445663 122.210869 151.047150 448.310547 662.057678 95.307602 375.518433 117.603577 169.087891 285.152191 318.121246 108.554497 304.951691 383.316559 206.405640 166.437622 141.968796 469.965424 186.318985 154.748444 71.937645 324.748749 136.365204 113.980721 527.020996 369.026306 
