Conv_0_param_0 34.568768 90.440666 45.841545 30.829439 70.052567 14423.075195 153.836349 25.900663 64.118431 29.000017 28.829708 150.867477 347.875610 190.681030 323.348145 23.893114 
Conv_6_param_0 128.719955 124.252380 56.162140 131.555222 401.334900 146.951294 86.610870 67.791840 287.361908 170.771057 91.080513 281.729584 150.685883 83.882011 52.372326 98.734970 
Conv_8_param_0 54.321377 41.423664 129.899582 45.790138 34.723312 61.784534 58.728909 64.608505 44.925850 62.476986 118.190460 36.253387 117.661514 51.575024 138.441284 62.642719 
Conv_10_param_0 97.880981 135.841827 197.696915 155.001617 214.957062 223.976700 199.422729 121.990257 223.513062 186.868240 44.962563 207.028671 174.820297 98.831314 76.713791 225.265503 
Conv_11_param_0 181.107391 235.729950 327.189819 178.342758 403.506927 312.848816 141.864746 201.097382 227.980225 413.207520 500.448761 118.014473 311.143188 268.644104 150.926453 116.127136 688.956177 1453.218384 436.621948 263.117554 147.959946 117.845276 274.971619 942.411011 1690.932617 660.111145 268.090973 247.364288 292.025696 434.962372 96.911850 362.705902 559.468994 153.041504 242.743759 314.442657 481.925293 167.378113 656.227722 123.480659 129.565338 326.017273 276.292114 275.580017 260.177856 158.847702 423.172180 379.112335 332.399994 117.744400 204.573456 110.299103 163.145920 89.907204 90.662766 293.648773 282.093323 99.717354 584.240051 184.408173 341.609558 669.718018 133.172180 265.152313 388.503967 256.274017 206.598267 332.763458 540.846130 399.383392 395.799530 109.687614 
Conv_13_param_0 138.045364 152.127182 144.056122 164.329666 90.244629 72.800446 141.967758 108.457458 98.112854 40.647934 86.718018 124.091888 103.037132 85.940643 103.495110 238.037033 39.489647 37.365665 108.758896 132.867294 97.687759 181.395905 150.542068 39.130116 24.064308 56.082172 49.083366 107.722534 74.570038 73.856979 216.117935 133.428131 72.250511 144.518738 76.123367 86.929726 95.036606 65.519989 39.287930 135.986481 227.724854 100.643623 124.443794 111.950645 164.017548 166.263306 88.080215 76.450798 51.863449 105.670151 84.477676 125.669838 268.960510 326.538879 300.789825 84.180847 122.019806 273.415436 55.845165 67.899323 62.454250 42.728783 149.090057 162.971207 57.008301 79.788528 135.634155 89.134857 92.129105 71.794769 57.028080 184.505432 
Conv_15_param_0 583.073853 415.877563 499.116058 504.376617 426.424164 377.701447 468.680817 660.029602 621.988525 528.457092 448.383331 496.311554 395.410309 498.165924 396.089386 704.328003 474.318939 475.020142 481.076904 394.628143 321.460785 377.182739 597.114380 391.133911 
Conv_16_param_0 746.836975 444.956024 294.188843 592.102783 310.776276 614.830505 517.795288 837.348633 518.491882 453.248108 383.058746 306.666443 265.919312 108.018379 67.789536 334.651733 184.965775 463.009735 145.097549 121.583923 342.266632 101.366211 888.252991 160.080093 234.530182 796.425781 462.707031 180.276199 96.333160 50.242321 259.176453 655.204346 326.846558 348.667999 291.032166 148.411041 588.904846 544.031250 559.299927 183.441895 164.914062 974.152649 97.976028 138.047531 233.949615 112.941368 225.693115 468.196686 298.477539 869.270081 269.945374 108.250420 125.977043 236.816223 491.078064 281.082184 348.772705 358.643188 978.479187 361.290833 287.495636 522.979492 503.158905 166.048523 1419.604614 452.825775 864.075134 561.171814 286.791016 564.249939 1079.764526 184.906097 293.734711 412.050323 201.426727 168.613922 339.234375 287.555115 381.493896 591.118347 363.601044 265.891235 552.681641 290.502533 110.836685 227.899124 1068.027100 537.886841 
Conv_18_param_0 33.263733 44.852505 44.328320 46.840607 39.542213 22.163363 44.378387 25.624416 47.823051 73.858635 120.864197 37.603027 21.204073 74.323006 138.477875 52.261646 146.465668 51.247890 176.061813 69.137894 20.559931 71.242554 31.455053 71.610847 38.327396 20.443598 43.981678 52.817947 313.968689 121.762375 37.686836 28.983515 118.304962 39.550377 31.255013 57.641449 30.150145 19.919109 58.411995 80.113724 51.954155 33.713326 119.285698 102.788063 89.477333 73.582733 76.927200 56.944714 56.305126 37.712601 59.178967 60.211021 139.242416 100.045212 32.618015 48.818558 65.284363 48.898159 45.672897 9.283089 25.888895 41.522446 19.545492 77.098557 15.553628 88.230042 30.046333 30.173748 86.948120 46.090107 24.649193 55.153427 17.561771 28.995300 97.013237 61.418789 68.455139 44.489128 29.491987 38.538757 59.493641 73.148529 48.463387 202.315216 217.626816 38.892010 32.141701 44.782562 
Conv_20_param_0 714.140930 537.941650 519.573364 503.604767 390.937012 506.201385 580.298279 448.227905 857.081543 575.400879 511.953003 523.812500 773.686890 653.340637 429.677521 498.772491 869.303650 421.958984 496.967804 384.846069 437.971283 603.388000 764.367737 549.775757 
Conv_22_param_0 437.674530 793.993652 1973.561401 390.075409 630.592163 511.181641 329.759979 1218.711548 414.710632 244.613251 305.626099 485.918884 3278.104248 371.375244 535.645935 328.380341 365.934479 217.752655 364.279144 814.771729 188.223938 2186.631104 1558.284546 612.470581 478.610657 488.800690 802.140198 870.817139 543.836853 922.794617 448.293243 750.822510 565.522461 250.463669 307.584290 395.054443 579.000977 245.164658 1254.318115 898.207092 283.236603 282.050720 311.127136 642.854736 308.382446 834.797058 905.113770 459.595337 561.762024 1972.399658 835.704773 490.665344 323.360931 962.318848 992.604492 441.485748 1926.998169 1114.078979 591.777405 366.118774 1113.935913 948.497925 407.324066 705.801270 511.963593 498.182861 813.252380 207.120651 501.034180 890.125244 254.732162 561.845642 105.436256 1519.882690 211.191803 575.982422 740.319031 572.720703 298.184753 1416.525024 554.932190 259.666718 302.980865 522.776611 523.041565 820.727417 353.457886 167.269257 302.413635 1448.028076 999.748840 1197.865479 560.686707 350.184845 597.151733 947.727051 
Conv_28_param_0 108.727249 53.984734 19.734550 288.401276 45.426449 178.445602 330.607452 64.060822 90.596054 221.474167 251.171707 116.534050 12.632671 218.007553 149.323074 319.197418 84.877182 623.659912 194.654190 86.184113 287.351624 12.959811 18.132483 98.004227 272.598663 91.492950 48.903484 41.513931 247.986465 61.449665 160.149826 263.928680 71.465736 386.499725 231.745987 159.801697 169.273911 161.027130 35.078388 63.408718 362.801727 177.476028 147.899170 121.883614 183.193512 84.894768 25.566162 108.541016 70.652512 21.788132 45.885490 108.493370 118.032341 21.772587 71.626755 314.558289 10.936872 29.329571 40.726112 207.410812 46.744427 42.671513 277.214661 116.210701 193.086380 87.723595 56.426716 808.272766 57.276825 48.731216 196.842682 121.859970 462.396637 14.465033 319.172791 54.394642 140.394653 138.568863 118.192390 36.816067 45.099743 388.191223 371.399536 168.421555 130.670547 83.377144 158.856232 229.219482 658.959106 19.808920 28.348787 35.250225 51.590031 140.491623 164.812790 84.863373 
Conv_34_param_0 601.676025 558.864136 540.406311 869.476379 431.944946 692.727844 699.919739 804.254517 518.058838 499.438293 526.850647 704.491760 708.233093 535.148560 689.271912 572.071411 972.008545 666.140686 566.994751 564.705627 674.912048 506.883331 643.889160 547.097900 604.798767 652.235901 565.651123 657.038879 719.001343 639.315186 678.043396 577.680542 587.076294 546.801880 597.422729 653.791321 560.116028 667.631470 569.735168 652.541199 
Conv_35_param_0 420.947296 394.523254 254.630142 371.969299 387.556396 337.698730 444.941589 135.294205 580.016846 397.197296 205.396454 441.394867 1912.525269 539.119995 202.930878 123.437920 354.511719 243.222824 434.428589 921.662842 443.442932 347.852936 382.080139 420.988922 250.846725 292.254028 412.383881 652.442566 643.185059 603.920654 268.330597 206.884628 471.051941 234.598221 337.645874 508.675140 194.910767 232.672150 387.996094 393.205200 415.813812 736.067566 563.139526 798.570312 166.390610 448.918365 288.263214 930.288147 461.392212 213.674042 218.235672 370.089325 189.726166 828.615356 729.490906 496.304718 305.979584 1801.150635 871.059937 1302.118164 404.427734 232.836121 264.429626 229.484970 484.684814 492.743774 194.508484 251.343918 751.338135 588.478821 158.224030 313.422852 190.326721 158.063156 560.380981 559.408691 550.869080 416.617462 937.842407 178.853989 283.109283 137.400955 313.941437 203.230423 577.963074 248.699997 313.777557 446.889191 210.526718 568.905457 209.402908 204.636246 819.024048 591.493530 227.334229 220.222031 197.249649 728.313354 275.716736 453.852509 350.960236 1140.806396 277.927856 178.446869 1784.521729 429.565613 291.707458 443.984070 335.715332 534.565002 1447.927612 712.594788 726.207031 411.732666 161.594681 314.527527 182.643646 331.251526 260.366943 405.975555 805.060974 610.716858 397.803864 307.184082 292.128815 582.332642 295.850037 205.351379 492.295807 642.259460 400.190826 1257.497925 262.312134 584.848877 583.412231 877.312988 528.486755 358.048218 627.141785 278.443359 489.899445 188.755554 455.680511 283.987274 347.552429 366.539734 200.068176 249.205017 643.114014 789.947876 250.353683 507.037323 277.747040 482.441162 267.409180 529.076111 389.067688 1293.171997 408.772705 122.779915 168.171844 215.392792 364.532532 590.877014 438.375275 437.154388 342.245300 552.449280 333.625031 216.467758 420.394562 474.523926 229.329590 362.304413 436.230865 374.272797 305.324493 439.810364 376.156128 237.385315 317.140137 648.196167 342.728973 204.732834 311.140228 829.960876 416.674164 946.291626 270.994781 229.570007 362.230408 346.720734 562.649231 871.806396 478.772552 362.523376 532.741089 1987.082153 150.118347 216.858353 411.267548 221.279816 419.875458 280.959320 265.902863 354.344238 183.629883 461.592163 878.511414 336.713776 206.420990 400.830170 418.450470 266.070892 306.941559 230.761444 261.863586 426.093689 210.024796 299.149384 678.338318 724.679077 490.901123 523.145325 318.812714 271.093475 361.940247 247.118423 556.923401 290.412476 605.516479 222.798355 399.460938 1028.969116 632.469666 766.264648 334.318176 169.420532 517.881104 389.472443 
Conv_41_param_0 48.776165 53.265488 42.427116 177.524857 81.131348 30.027290 32.321083 242.836685 26.508860 26.981886 99.604752 51.032028 10.986829 29.595072 24.347776 139.398087 67.465363 245.743301 51.059177 15.019380 57.571526 48.390102 31.033485 42.590099 39.753185 143.421509 53.802769 17.781902 56.255489 35.574188 342.732971 110.284042 84.771988 42.146851 30.639088 30.877941 244.336960 62.769508 64.171860 57.369789 50.637894 6.793282 34.822636 22.718466 115.657333 37.442101 221.771545 24.897566 28.622431 97.604294 184.670303 37.566044 157.215012 15.059690 24.586056 22.047409 62.524662 8.581926 18.790314 21.063585 18.399067 175.740799 97.413048 54.517101 36.243744 16.250301 230.436676 147.470383 28.934238 22.012136 275.252808 31.805170 215.323029 162.667084 42.081104 23.261784 22.870758 69.946007 17.409700 62.793171 109.080833 147.850143 80.824036 83.763412 25.226345 180.768326 20.110600 44.594131 53.322258 50.697369 108.455894 182.178070 28.241795 41.233902 106.249702 91.876205 285.050964 12.457523 104.864349 23.005369 46.990734 10.687858 52.857204 170.872696 19.782591 45.987385 54.230347 22.261343 60.416813 12.845679 26.603096 48.295242 26.656771 42.168255 142.962402 105.134003 245.111725 170.469742 127.463501 71.480217 29.641321 36.351070 24.382973 115.101509 92.586525 34.672081 71.534195 213.984406 35.279068 47.258617 19.802217 9.924594 77.715355 25.032900 42.799496 19.036352 33.837387 30.316517 15.484842 49.848022 29.678547 148.081696 24.895102 94.226570 101.100792 28.425716 151.613174 35.306622 24.364775 19.359957 98.411377 33.093010 89.422966 18.725552 92.303299 29.143847 61.059395 11.254480 37.929657 421.825073 401.053101 34.446758 12.064967 24.343813 23.933559 80.245232 58.271328 39.416393 74.058121 121.049698 55.493767 31.291870 267.722809 16.945621 32.852219 34.888351 39.646660 32.868359 23.563009 37.558777 27.086803 19.801468 60.897446 177.378220 90.244431 24.029438 23.337595 21.086609 73.248558 130.162338 43.426338 80.419495 81.732788 22.345585 21.094503 67.057716 24.136232 10.516400 177.572159 33.918201 37.330547 66.729927 21.093531 32.267727 51.631451 30.273415 437.900085 23.841499 47.378632 109.200912 136.644760 62.651997 31.155890 422.609009 172.589584 33.863068 166.643478 83.672668 50.602093 93.042770 55.414330 33.804432 36.956627 34.360329 54.683430 23.581621 60.153816 110.426407 35.646030 111.092468 32.831837 150.768433 15.442231 12.742422 12.652192 47.526333 47.112110 318.494843 29.072977 44.015995 
Conv_47_param_0 847.966675 812.365234 1124.206787 650.967224 859.211853 1345.314453 892.319824 823.489990 911.571838 1113.561279 1158.263794 855.697815 724.079590 951.470215 1112.070801 1226.972656 917.307739 857.586121 1141.118530 1065.331787 1099.352783 895.554688 1194.402222 1142.959106 832.703857 1102.990479 1373.212158 1095.693115 814.120361 938.321594 851.982788 865.910645 1335.448364 1316.029419 867.882141 879.562805 940.857727 825.906738 1018.728699 980.924316 
Conv_49_param_0 985.462646 430.438354 336.377472 645.943359 333.205353 840.217468 487.501984 410.784424 779.188538 781.807129 755.880493 633.129700 505.947693 444.025330 244.823807 561.979858 400.028687 958.583740 629.956543 1950.949097 482.799774 437.695251 680.789978 341.948456 269.285004 516.062012 435.560333 613.088196 1131.191040 891.457581 586.612427 294.968750 651.503784 334.135132 480.787506 376.948944 427.735535 671.597168 470.968536 326.540131 457.127014 295.896820 549.747986 411.842377 346.930420 283.098724 496.831818 527.057434 540.728271 456.423584 390.251862 413.227844 554.373901 599.799377 427.422180 641.094910 471.532990 479.737946 154.323929 336.464325 902.416992 439.755646 420.891998 495.557220 423.125977 215.435135 472.189392 503.317230 409.305450 377.788300 874.822021 661.845581 301.955475 438.169922 272.307373 413.825500 534.300354 300.664764 555.621460 591.598999 650.526245 196.417969 278.187805 362.126099 646.128357 745.372986 681.583496 659.382690 628.079041 746.270203 338.990204 910.176941 331.675873 234.566147 480.132263 793.895813 336.897247 1652.424805 489.712494 483.842773 717.142761 844.755188 507.939819 436.478851 855.768555 351.796967 423.523438 132.322556 337.967346 555.181335 502.775665 489.592590 629.694031 479.573761 811.972961 556.341187 539.482849 588.456360 450.152069 440.260590 248.064163 635.219910 508.905670 598.200562 949.181702 705.449280 776.207764 625.030518 627.970154 530.000916 990.502991 398.037872 256.693085 377.605438 392.744934 1721.732910 408.626801 664.502014 991.376343 282.082916 555.126709 339.773010 430.918152 824.873352 718.407227 1381.566406 375.646912 337.664124 575.938599 415.843475 802.820862 580.198608 816.658569 380.431091 370.575287 274.408661 716.643799 311.679779 294.991913 315.143250 401.767334 601.268433 662.194702 789.491821 294.295715 332.029327 478.743530 456.911591 464.934143 402.405212 984.147949 724.915405 545.120178 291.356323 211.996643 645.336365 481.386932 467.825165 347.837219 325.676758 865.198853 580.081848 349.145050 424.713562 509.910309 340.589264 431.050812 749.545044 401.086273 621.890015 364.316162 484.950287 407.990326 581.163696 650.180603 310.130310 1190.792236 725.426392 741.726440 626.768860 307.559875 524.991821 710.529785 396.882324 457.846527 464.045349 315.951996 465.952301 266.758667 898.568848 434.122192 490.526733 870.658936 323.633423 972.597900 787.335388 568.172363 496.531525 498.025482 784.989075 324.944366 586.416260 523.558105 567.031799 512.422974 1053.302246 266.739777 711.374939 466.260986 495.825653 427.351105 429.880646 212.759445 445.471863 663.302734 347.677307 851.009216 453.175385 584.615784 927.625549 
Conv_55_param_0 67.389702 34.572460 178.641739 57.931953 91.492020 25.325144 24.096704 42.206326 17.279686 19.107368 24.754795 37.351681 89.714653 125.280670 66.337738 29.966751 36.100853 44.906731 22.690765 14.690180 100.162552 45.986008 57.735298 57.765419 187.239410 47.429379 105.258736 79.115982 19.303625 41.715839 90.988815 97.912315 19.698065 127.672173 47.647774 112.078926 43.041935 21.906391 47.026600 121.920815 26.108458 104.617455 34.160526 39.317017 97.264030 33.689198 42.619480 34.649055 13.706330 43.724457 25.604845 44.052589 50.473602 25.429834 37.912155 37.149693 21.039995 26.166042 367.753937 41.917419 39.683849 41.484802 32.324226 93.587715 90.797600 85.029617 93.231705 34.655140 91.756081 166.511124 16.899450 35.388416 100.100319 52.533863 106.324936 36.333904 38.730801 46.598640 85.742477 72.492676 27.716457 87.656105 39.806511 56.492046 18.056345 39.322033 39.960762 27.681780 39.681210 34.980118 107.844948 34.920612 25.784344 87.202248 91.678268 31.298841 40.977127 6.142711 66.007378 26.931843 23.836370 23.245586 23.176804 17.487583 27.488449 104.044388 81.947136 189.871140 85.517365 29.894207 32.362900 75.166466 15.203773 43.620251 38.981941 47.698620 32.304790 39.847538 25.970062 72.846962 41.636028 56.396889 33.048546 69.327904 17.105223 32.837448 20.319773 30.342089 82.800385 54.591778 21.634037 106.041351 106.416016 35.926128 77.310524 13.320097 92.631653 32.843433 23.764275 33.758858 36.125408 79.905937 29.540825 22.277185 31.747328 36.743103 119.868698 49.780899 25.816971 72.042458 30.551214 62.805683 28.980902 65.145897 67.132416 93.324005 36.081558 58.162895 94.168678 69.324509 90.574791 34.696915 15.743742 65.512764 55.828720 96.270126 65.682358 45.384663 54.557056 52.210995 19.268517 17.379414 31.501461 90.484367 147.841751 25.041555 42.741627 76.368073 150.360077 103.885574 21.840120 38.828659 130.892868 65.329781 41.669777 76.028961 22.036434 21.688593 72.174461 28.507545 55.092232 89.534950 37.365402 89.861908 38.807842 59.894455 18.818153 39.622501 28.617249 45.957024 85.384674 97.965157 40.037682 26.568043 22.518551 27.534996 89.805191 27.951372 31.105669 39.591282 55.056717 46.596989 32.401581 93.257347 18.038830 26.018639 22.484127 52.075401 44.362404 37.351521 44.528648 21.121204 50.247295 39.297390 50.358433 15.809219 244.399277 24.350050 32.595951 23.399044 15.816680 48.354858 245.031326 31.248951 19.854595 60.452583 39.428024 18.113964 31.886003 14.402816 
Conv_61_param_0 870.646790 594.726074 470.662567 356.640564 568.494202 930.080261 676.617004 549.584961 640.233704 622.498291 755.089478 516.225037 525.372986 702.670715 530.006226 817.663452 697.376404 558.278198 935.012146 638.368347 650.170349 487.468201 585.784912 733.670959 711.571533 1084.582031 631.758179 1317.667603 788.700073 794.677673 565.914001 772.479126 659.388916 830.708313 409.002838 768.782654 840.304138 883.440613 764.753357 889.332031 
Conv_63_param_0 513.265198 954.822144 635.696777 692.284058 408.116211 1515.113647 3335.174805 904.469971 433.426239 882.714539 915.207886 571.329956 2076.928711 329.176270 701.470154 7871.524902 508.936218 937.255554 833.042542 765.116882 395.446533 1807.814697 2338.182617 605.365723 596.984253 875.983459 1075.018921 660.484558 984.160706 642.596985 557.869629 680.157227 837.009644 1256.347534 2406.696777 1063.979004 603.954407 814.687744 1255.822510 500.095154 1223.774658 1014.833435 1378.927490 830.584656 279.415466 994.338318 588.913269 1974.084351 716.781555 554.012939 416.779938 553.048584 880.897034 867.947571 619.971680 921.718872 785.106140 1811.747437 1332.061523 670.157043 396.214020 1297.610229 756.938416 462.208466 791.542297 447.607422 516.196228 1190.600708 712.707214 635.512207 552.798706 931.364563 745.548645 1022.847900 4876.961914 396.171936 599.809143 431.212402 1819.885620 700.425720 384.838806 966.990906 509.864594 1078.603149 1177.996216 878.821289 713.406250 1159.414551 563.731750 1656.770020 1340.058228 327.736450 1325.950806 772.730957 594.366394 598.803711 518.889099 680.617798 644.336243 545.245789 412.532379 971.165771 811.394714 1053.963501 1106.967896 643.026367 766.588623 724.277588 726.463257 503.076416 497.828674 439.979401 1026.965942 673.156006 901.158813 550.444519 839.731445 666.750610 677.781372 1341.572632 
Conv_69_param_0 195.801788 41.140583 55.834969 89.527725 74.516533 27.963148 11.078279 85.677849 157.036102 79.326172 47.669312 348.629700 17.221928 260.563599 53.594173 4.475581 63.266335 35.626530 104.560768 33.571533 154.447693 17.347034 11.971976 61.209354 76.098618 73.455444 31.800081 85.328026 31.849854 45.247135 90.469856 102.507713 52.935310 24.413958 10.467422 36.818645 62.517792 57.278267 42.418865 58.692295 21.210602 23.612829 27.467701 96.308296 102.670731 53.338066 49.653851 21.730625 56.319115 54.642879 159.958435 99.825302 56.406914 28.658014 102.656021 38.725658 95.261246 53.358177 28.405834 47.717312 82.518173 17.176453 31.554293 156.604553 86.194572 227.464142 202.897202 28.738079 189.992279 222.808075 126.302155 92.979919 38.871414 46.866463 7.109318 80.449242 130.029129 142.957947 39.136700 89.956551 103.046028 50.013870 153.898102 32.756481 51.393272 155.427216 48.166641 15.702452 180.286118 42.093754 49.359962 271.766663 12.601802 35.869526 96.367111 281.571106 73.872604 32.724651 150.037476 63.719627 95.231163 33.626205 46.831284 18.999559 40.615211 63.252151 53.135624 37.540154 229.262070 127.878128 116.238876 136.644348 39.356617 145.694962 38.760754 102.779007 78.257004 108.145447 37.432499 17.864819 
Conv_75_param_0 738.035950 764.219482 682.480774 689.110474 886.327820 837.090942 588.625000 629.111023 836.575867 948.321472 820.329895 862.234802 963.562134 793.398315 665.819153 830.533142 827.563904 861.190125 750.557068 848.189209 771.582886 895.362427 665.360596 725.593018 738.091736 638.508118 703.243103 815.590332 977.814026 565.126465 685.970215 799.205811 791.668152 1133.033203 747.027893 914.460083 775.115845 772.925537 1011.544739 640.418823 972.182983 454.062744 711.455505 971.380737 716.341370 715.634521 808.718811 1250.929443 
Conv_76_param_0 466.770233 796.118713 534.271179 383.614288 451.454437 573.798340 338.491821 329.804413 417.000885 531.231750 705.554382 6390.399902 272.677460 618.737671 718.598572 835.571777 369.035919 483.195679 1236.068970 551.521606 415.570740 371.003082 3293.783203 212.317505 3018.409668 629.712402 518.104858 1361.053955 419.442200 434.390015 1999.996460 383.813843 290.807983 419.629181 249.312500 771.856628 458.232605 587.213562 281.171295 419.400970 264.659851 157.633911 320.685944 377.384064 1345.527344 1542.160278 569.733154 242.794937 672.590393 380.200562 382.869843 403.185883 349.667542 857.350037 929.824341 1682.270508 265.476746 636.684631 407.153748 518.051453 490.480560 421.893738 470.916443 317.396576 575.663574 391.850983 727.539062 217.161957 500.442902 619.864929 620.961975 1042.576538 388.547272 338.335968 910.435181 151.376480 276.876343 898.894653 438.356293 435.378418 666.160217 369.241882 429.103210 502.439484 410.205505 238.625443 285.822266 284.238831 396.325165 340.996490 239.255554 443.507202 314.332825 1131.794067 274.052765 352.616882 398.514801 365.459290 793.977051 988.697510 383.571564 497.715454 791.653564 566.586426 948.558594 503.481781 187.713943 265.557312 615.577271 257.777344 396.112854 503.367584 348.061798 510.074402 684.897034 473.044769 696.154358 429.692383 790.960571 447.782623 336.574127 404.528564 346.829193 650.105652 214.409851 191.884628 568.221130 378.655396 350.210602 268.427124 705.978149 281.467896 458.383575 173.258286 542.694275 529.232361 422.779510 142.880081 399.979065 652.360474 1749.854736 477.433075 692.442505 212.735794 
Conv_82_param_0 66.047295 77.854126 50.296818 54.954590 36.234108 38.018185 98.049675 43.997116 51.689739 25.485031 25.354214 3.844573 136.768204 58.623981 43.668358 68.486649 164.323410 34.475536 25.795284 71.205696 46.067200 124.784973 7.292745 61.314949 7.369040 44.284431 52.177132 15.918583 99.027344 38.632599 22.559690 103.442368 309.488525 50.265915 384.431702 41.664974 37.069851 45.735638 66.492081 109.031242 134.885284 128.989304 111.165825 32.003132 29.586103 15.924105 29.966366 273.120056 18.091240 98.541176 114.920074 45.082573 50.047813 33.476673 32.979492 25.183846 114.880081 124.522209 68.580437 51.941360 147.931427 60.422577 52.966015 214.608002 27.415104 42.143852 29.114906 140.669678 42.993706 38.181057 31.904659 39.845711 119.442322 74.311409 23.080055 94.341675 144.096695 18.457890 80.630417 24.122997 34.345028 58.977581 134.348373 134.230560 80.187225 148.203690 241.210831 160.267471 75.290115 102.741669 206.877060 96.619171 31.575586 25.289345 122.413925 74.110947 44.554176 45.535618 115.777519 21.420082 50.483238 38.322525 32.246368 44.523640 31.096800 48.344910 217.384399 201.301193 32.616127 66.210579 155.257629 82.909355 102.207008 192.083206 23.224607 77.253716 31.910860 55.253658 36.406116 38.082447 185.038330 111.593414 124.055756 26.622915 92.249474 255.015884 36.762123 73.312134 59.539013 87.392738 24.169321 90.292900 48.134674 103.412514 59.505013 82.877533 41.504433 397.275269 72.594940 37.544422 7.580301 28.622065 35.155907 366.042419 
Conv_88_param_0 785.303406 911.884033 603.903564 948.512390 847.037720 786.864807 571.191772 483.257324 607.457886 668.516235 764.908386 678.088135 940.057617 743.504822 669.237305 679.809387 574.349915 565.948120 763.904480 860.529297 908.206665 661.928955 785.618286 692.291565 719.643738 637.964905 763.430664 686.982910 953.786133 730.327454 595.479675 661.353943 614.496399 593.831482 750.692932 664.405334 686.679871 699.912476 721.876343 444.322235 563.193542 485.088837 597.050964 532.375610 499.375458 522.201294 847.826660 541.744202 
Conv_90_param_0 471.312531 984.549744 448.076477 714.780579 1500.246216 380.881042 631.358337 527.091919 425.382843 613.969177 517.005737 685.755249 612.173767 509.740601 431.530945 503.399536 317.201233 366.612610 1229.152832 550.416748 644.507507 416.944885 635.681885 782.419922 1108.344604 675.376831 372.395599 858.729675 314.341553 768.714111 696.556885 383.962097 779.565674 429.938416 693.617249 460.252136 532.136475 4945.995117 564.666504 467.560364 341.088531 1134.797729 473.434448 3254.977539 547.873291 1211.316406 500.731140 355.955750 438.722046 455.697693 627.545532 725.726990 408.888214 831.239197 660.293030 307.384338 1413.747559 531.382874 428.347351 494.935883 677.456482 343.862671 474.176178 423.347351 466.584259 562.197327 1891.475830 961.039795 456.075378 439.009094 1188.989502 836.148987 360.398621 579.096375 828.028931 484.729309 657.796204 458.033966 481.487244 436.448273 627.268066 736.693542 503.888580 477.652893 508.076416 312.319977 736.376953 632.612244 461.496338 423.835144 504.420258 663.941040 484.478943 312.700409 673.083801 422.154083 517.812012 730.669617 483.505859 529.551514 394.565247 484.708313 753.889221 353.833984 540.336121 293.701721 584.151794 527.791260 917.114624 702.985779 350.468262 319.362122 602.156738 539.749634 409.853912 622.945679 1396.577759 451.699280 482.239960 1093.241089 684.033203 690.634705 243.022705 472.602081 2450.216553 593.515137 537.771851 423.741333 715.651367 534.688293 357.439331 606.773132 739.988647 527.267212 346.854889 328.502380 785.877441 350.952301 583.743713 673.289368 470.726318 365.415894 460.158264 789.023071 481.359314 1166.723511 369.397888 550.007324 478.247009 502.307709 409.472351 601.229248 827.100769 351.541260 378.666107 747.339844 583.412109 756.587097 455.847534 257.558136 554.182190 467.709229 745.722595 828.778198 597.482605 1697.238281 523.394531 742.528320 319.357269 770.625488 843.334229 779.164001 516.626831 961.676086 290.106598 571.469421 409.120789 543.831604 1587.652832 456.435516 425.045135 433.994537 638.767334 493.224548 461.192474 678.270691 505.113037 483.601013 574.589478 363.993744 525.953918 606.844299 760.643677 634.270874 750.289734 465.598480 464.005981 632.225891 1269.309570 528.522278 712.668274 592.140808 498.624084 419.025391 356.695953 450.822693 503.670471 439.962860 322.977295 392.343048 544.859192 587.608826 595.974548 1556.944092 893.321960 540.169006 807.117004 300.393311 1678.629517 509.423218 543.102173 372.854675 843.149475 596.653076 392.503235 552.261230 384.607208 473.753632 490.361816 409.467773 454.749786 644.742676 367.419342 2073.549805 564.793030 864.418762 512.690552 498.791412 541.353638 350.045441 401.841766 638.478210 3147.832764 430.503632 505.049530 581.326172 445.639618 553.779602 606.307129 399.431885 471.150848 605.411560 724.482178 970.527588 714.466431 582.727539 648.676025 1068.161499 785.200012 498.136871 612.584412 558.431396 887.776489 391.702209 373.259949 463.770203 1507.884399 511.580933 499.315002 736.471191 492.021820 336.999420 750.526489 646.810425 504.806671 332.363373 751.320496 601.011658 620.195801 351.228485 584.427490 361.928894 700.532593 422.276398 524.825989 2174.235352 677.374817 800.988953 
Conv_96_param_0 201.426514 81.675140 118.960403 82.534203 62.984680 144.202225 70.127319 99.379387 417.328522 243.431793 124.019775 60.408630 126.251442 99.346260 161.766418 100.767456 319.123047 405.278137 37.113060 197.200867 129.554749 147.979309 66.239761 110.948570 66.410126 67.621933 249.261383 49.106838 180.259109 72.666283 72.685028 267.026428 114.614433 107.021973 131.375854 138.303436 98.329445 16.825148 67.503433 133.627533 216.551468 53.671246 96.520668 20.125385 75.852821 87.186493 82.242424 163.979248 124.647369 119.474319 66.368225 136.575027 55.319988 74.215775 90.886269 169.577393 35.506977 113.479530 69.441170 184.720169 92.276939 196.604538 176.614639 201.692825 100.648819 98.538338 47.803883 124.285271 103.979607 84.204681 2339.402100 81.051620 157.302704 138.474182 183.156281 84.616241 132.785339 142.726334 85.818733 243.029938 129.962860 103.982620 58.519711 205.216019 129.577423 165.169952 59.484394 85.686813 122.429344 175.547058 82.511482 189.379196 109.971283 69.997665 181.404907 143.141434 364.765259 56.464050 253.921326 185.116013 203.003250 89.055283 141.704498 306.587708 111.318230 146.802399 82.206902 126.193001 73.616463 369.177948 166.543381 145.716934 103.601898 104.649544 330.656189 153.427902 45.813526 126.023254 176.269974 55.814884 81.759377 68.632614 634.295959 111.619057 46.943485 128.588715 112.325844 179.311844 119.810341 144.737930 359.635468 119.826851 48.473877 144.603104 394.514252 512.612549 83.466072 146.301208 57.655685 59.256813 102.377625 189.683029 105.803406 38.388264 236.009460 41.471794 318.065033 161.489777 154.532272 154.050598 140.321304 180.068405 85.374741 137.140839 283.011566 67.943161 71.530411 44.256958 307.826202 346.188263 129.614090 161.940002 59.819996 113.683975 152.244476 13.554487 83.953522 55.473427 335.171356 78.406044 60.405109 174.266098 90.144997 140.412872 154.923340 65.327354 91.689804 98.546829 72.721481 111.811737 181.528671 215.016037 86.221306 81.085739 161.362106 161.133652 168.346878 146.308197 175.946838 88.697342 84.455009 110.524033 178.214355 81.472557 95.964928 55.785370 71.025337 71.504341 89.591217 160.545975 94.198029 149.255432 118.642532 101.563171 157.188583 218.700378 78.514732 281.834900 307.038086 181.981323 247.850723 83.501907 103.905075 41.812702 101.742058 132.346039 47.168762 123.737625 26.938931 244.743851 88.895958 145.818710 45.931004 230.757019 286.464233 141.033279 258.560760 280.572235 196.450027 232.845337 302.152161 152.600479 201.291092 29.336599 80.395500 86.339539 156.883896 171.380295 164.311798 88.850372 79.533264 160.174255 33.129459 115.402931 77.202034 43.155544 97.107597 272.595398 59.047077 193.008087 97.343132 107.285614 86.063698 48.154354 73.741913 153.752899 130.073212 52.656429 85.466583 144.862473 125.053200 65.743317 82.211349 196.343323 320.209656 48.797459 56.245796 110.639381 119.074814 110.472458 249.790909 138.164536 53.972385 71.568016 65.997093 107.152771 118.161789 83.113083 74.903328 257.289246 128.088715 247.739044 108.051849 162.938812 127.205086 21.872095 94.790787 108.671043 
Conv_102_param_0 1296.587280 1336.608765 796.190796 1434.228516 1542.313477 1579.056519 1523.763184 1700.255127 1619.501221 1161.963501 1401.037476 1524.289062 1623.366455 1142.761475 873.572144 1182.287720 1178.173706 1471.380371 1649.494507 1459.193237 1389.352905 1362.005005 970.664978 1017.735535 1272.209229 1400.927246 1244.899048 1325.512695 1229.828247 1574.750000 1351.087769 1040.239380 1376.153687 1374.901611 1494.580444 1326.748169 1387.509644 1632.130127 1275.979492 1387.316284 1385.211304 1285.808960 1285.974976 1495.882202 1175.874268 1143.174438 1413.808960 1306.534180 958.135437 1170.821899 1281.391846 1373.849976 1268.692383 1044.413818 1352.908203 1172.434692 1350.520630 1381.605103 1076.299438 1399.262695 1567.636963 1531.016724 1398.426025 955.699463 1478.868164 1514.744263 1547.142944 1644.134766 1280.588989 1047.601440 1202.699097 896.166199 1072.609131 1495.037354 1555.047241 1158.755859 1290.466309 1632.151611 1342.932251 1451.852051 1483.084473 961.536255 1324.192993 1236.494873 1462.931641 1166.204712 1264.953979 1285.297974 1422.992065 1030.036133 850.579895 1169.392212 1549.036011 1340.052246 1051.598877 1641.291504 
Conv_103_param_0 763.372803 471.137817 756.927979 1603.723022 532.126892 670.161377 499.819489 573.694214 301.625183 340.591339 501.078125 1101.427124 590.309326 393.699127 437.809204 438.972351 651.541443 437.958466 235.854202 536.830322 329.163086 237.160217 317.368469 448.179352 338.832214 369.088348 438.566254 528.129211 503.851410 329.401794 1696.868652 201.843796 777.215942 145.935318 648.892029 345.413086 332.545166 1019.594299 417.317230 299.006531 450.647125 269.399261 396.197998 433.779358 313.690460 278.599548 392.635101 287.590973 534.302490 428.132782 501.873016 396.638275 403.284271 563.991821 418.007660 295.037689 351.817108 532.038025 318.623230 549.189758 371.133575 538.314087 421.371277 343.037567 241.699112 336.735413 265.166656 247.045532 808.464417 445.213745 888.389404 505.042572 386.006866 403.331329 612.160950 715.704224 307.984222 379.400940 650.181030 436.587738 365.581177 460.911224 397.660370 399.929047 242.762039 508.633728 654.407898 293.298737 495.608276 310.820404 279.722778 540.611572 806.473633 477.039917 324.343964 403.268250 486.511475 312.759521 337.272522 265.755951 546.428284 269.604095 339.529694 281.821686 454.009613 298.500092 663.684631 264.898865 245.916367 300.362244 336.767853 300.590179 573.255066 836.887878 323.254059 438.873627 209.689774 503.829834 368.782196 168.627884 434.081604 434.124359 915.968384 518.692017 564.174561 355.023102 638.125183 337.217499 609.990967 345.343689 507.984802 260.213928 542.336304 352.233337 356.403473 498.731201 568.415833 364.227417 294.395935 239.726532 412.497314 270.224152 280.441528 341.896576 634.986450 486.094696 238.339386 242.294266 285.246307 362.975128 605.808594 431.902832 672.294495 340.871735 484.768280 268.762512 168.556656 274.253815 396.684967 889.203369 575.466614 460.671478 2236.613281 472.918549 401.549103 385.596466 334.428864 650.923950 567.242188 363.429657 308.248291 344.378326 362.092346 546.803528 770.562073 364.077332 408.190002 364.831238 393.661133 371.438477 2834.499023 563.651917 356.613464 1267.294067 295.224487 240.157669 321.563385 324.280365 475.465759 367.111603 363.345062 376.766846 515.502869 344.435486 255.179550 398.858551 429.649933 869.979004 483.884796 241.494034 518.905579 533.313416 244.079315 410.016602 378.845551 285.239990 792.045166 336.298340 406.843475 373.835602 540.871155 222.221298 412.926453 453.538635 563.570618 667.899475 710.024109 322.886993 572.331116 292.179688 390.594269 1084.761597 440.462769 482.494690 339.088898 460.579468 360.986847 255.910980 357.672852 320.052979 241.876907 455.770264 340.918823 317.379364 320.977356 381.243683 552.370911 318.665405 327.654694 480.483276 160.824738 356.725464 464.778015 503.171570 332.994507 484.912323 533.490356 349.992401 327.568634 270.807190 1297.577759 296.211029 375.790619 477.349640 472.836914 274.250916 1089.612915 386.773132 360.476044 557.082336 967.488586 341.825684 565.801392 325.150970 339.842163 208.677933 326.141144 311.641937 315.362518 1419.427002 391.477509 445.064545 342.271362 264.384613 485.471985 320.786530 415.722443 350.929260 328.538727 291.084015 380.123688 561.021484 557.605957 405.616455 2197.956787 661.967651 257.755432 361.804108 816.745483 317.536530 534.385925 260.108643 303.681671 256.539795 329.025635 637.847168 343.709076 414.097534 499.600128 425.381897 543.966492 330.832275 298.968292 549.269531 361.060272 529.036255 592.234253 357.949280 623.098633 592.534607 464.416290 2366.599121 581.197510 366.464508 296.406464 367.098907 356.899506 388.161469 269.373108 434.304962 328.034393 288.919830 602.267517 545.703491 282.493713 301.336731 491.968079 818.248535 365.132172 285.335144 375.869568 379.745148 562.498840 747.684753 372.827606 376.089264 466.661255 187.029434 491.226776 248.828964 425.799713 380.107605 743.997314 386.367432 698.105652 274.531769 281.476318 333.842224 569.940979 633.954346 564.548523 198.019409 287.492859 532.284973 454.982483 634.977356 196.082458 808.683777 1362.154663 271.721161 390.162445 493.320770 372.572510 454.349518 543.189392 606.896606 337.245636 322.707947 474.438873 477.083496 309.660553 346.973602 377.887360 297.886139 315.172607 267.506897 335.153076 710.681152 271.641449 572.197876 379.509430 737.087769 172.583801 243.005280 396.454712 552.208801 519.767578 646.054260 245.224670 334.147552 294.654602 387.948975 437.252655 280.914551 192.304901 373.362793 364.438446 235.639038 464.243317 443.136627 449.957672 516.884766 262.295624 506.597107 368.844971 318.304962 471.168518 229.995956 336.363464 471.456146 768.104370 366.524048 536.067932 419.792267 500.478973 255.986755 564.354919 411.447662 229.564362 315.030670 265.785675 279.024658 306.331146 402.145782 370.059296 507.896759 503.300110 386.692657 252.170959 268.493835 248.847061 547.527588 430.893005 408.253967 458.682434 506.219727 481.066162 955.834961 431.593140 438.865387 515.831116 416.442505 257.435394 534.697449 1113.624268 377.774689 178.639999 489.921967 280.985138 436.456543 243.664032 393.512512 384.117004 409.966309 385.371002 316.094238 485.947876 451.243317 346.445251 544.536316 549.075867 578.147522 915.066284 386.391693 331.244232 493.344025 514.880005 319.869324 269.181610 217.388168 421.859070 257.707886 552.186340 1236.156494 512.978516 460.149994 759.218140 444.483429 629.760864 329.811188 421.295807 697.901672 390.076141 654.009155 370.988831 693.164429 727.271301 454.303711 510.289490 337.777496 413.614929 589.072571 352.843750 818.816162 663.761169 851.693176 594.305542 771.324219 694.629333 782.353027 262.021301 487.642395 275.913116 940.114380 502.938782 250.286194 394.071350 618.907471 611.783875 385.935181 285.593964 242.615891 425.858398 373.142426 755.813171 318.164886 302.507812 460.336914 598.211975 405.070496 400.794189 300.390991 517.771057 397.914368 548.860352 592.635437 412.999084 414.509460 335.884186 311.625977 340.241730 371.497498 511.169830 507.478455 394.238251 328.651093 392.488861 636.526672 363.670898 284.618927 659.743591 367.223419 352.897064 596.965942 276.161102 367.688202 363.737823 534.044678 548.299438 537.175659 290.973358 377.648285 646.373962 450.991943 404.858368 287.356049 436.594086 645.862305 240.798111 225.698685 227.001648 744.754150 599.512878 498.978577 381.154846 493.348755 570.163452 578.096436 327.818054 377.948273 405.144470 534.523376 261.602356 432.616791 332.598175 231.544891 
Conv_109_param_0 27.680710 33.403023 36.490284 14.544145 39.329033 87.000282 29.807394 24.423380 53.381680 48.343765 29.431309 15.206753 41.502625 71.860504 34.498192 26.427814 40.205814 32.856819 36.471760 48.654278 59.654919 92.152832 75.068665 88.376472 45.150658 59.527428 56.531010 52.118031 32.051365 57.969139 11.004583 135.130569 49.924313 276.089111 47.439617 52.475384 80.310371 5759802880.000000 50.432758 66.039703 56.924988 110.118782 77.682823 41.988121 37.145020 98.057831 45.390942 55.639065 29.742891 22.228024 42.558830 49.335686 56.416737 23.222984 22.604212 50.709473 39.876457 191.935074 52.998085 30.891766 47.060627 52.803581 75.593559 84.801033 140.468506 34.364269 41.512058 86.089340 13.815899 40.548801 37.073162 38.932968 65.170280 76.770668 64.787582 39.518826 34.888889 96.422607 40.436203 30.443890 72.327042 37.325340 38.841766 45.626602 68.454109 45.659332 17.275110 51.138866 54.461647 106.100418 84.454582 83.805611 28.856430 83.934334 81.816589 28.856106 56.634335 59.912342 67.360893 87.964340 20.982079 57.512341 71.799393 95.740746 77.634598 80.477852 45.751415 106.475586 138.559692 63.070141 57.727791 131.974289 24.117292 38.304974 110.188194 51.501678 35.915951 94.229172 60.962605 128.105743 25.723019 50.594131 24.982889 57.325855 52.891056 93.525673 27.998789 94.954536 32.466705 47.972012 21.855532 80.944244 65.304985 56.321251 63.337093 21.692123 49.982609 48.542629 44.693520 60.778076 39.661411 100.681717 55.136791 46.952007 49.380795 35.550938 131.258072 33.252182 47.733879 46.351818 26.255892 31.510172 29.304760 138.795090 44.104164 127.505074 62.566597 76.870338 51.909927 28.757387 35.858704 30.492899 7.131239 37.784485 69.303894 42.611263 53.001530 20.267950 38.605972 21.887075 40.559952 82.408127 130.529999 54.592064 1897.456421 39.316708 87.532791 67.062218 43.027668 67.099579 7.694352 67.300774 53.461033 18.200108 70.767776 60.803131 35.996323 90.311920 40.304596 74.842430 50.721294 44.717510 49.805794 52.182373 29.541235 78.840904 41.530914 23.292963 30.449718 144.052795 45.695614 24.465498 178.187668 59.930695 26.165562 72.358215 46.659428 72.152199 63.749050 41.624496 21.032820 61.207428 66.286316 47.931519 20.872889 27.111643 29.537857 23.654127 29.160252 132.373276 73.720634 14.257627 23.665394 31.317240 62.293198 38.370605 83.308968 94.675163 42.335567 64.438995 96.479408 59.406906 40.956673 56.053673 48.284134 52.680557 96.741875 50.213409 67.932655 17.193115 66.783142 60.795235 36.329300 55.650826 122.911499 33.081295 60.205769 114.853912 53.303192 64.624855 9.860414 76.905365 65.551453 42.263672 23.281256 125.154755 13.957421 120.081947 56.161079 38.996277 27.718035 105.034523 43.782951 45.017223 46.665668 66.829750 40.172943 89.860535 52.171505 12.330642 86.301781 35.194454 52.610943 67.378708 49.538776 27.422915 95.644402 69.005508 107.734917 59.587021 87.465813 56.862568 54.061356 44.265614 5.646902 14.097807 135.792603 63.969395 38.011826 53.361599 24.795460 101.517540 62.161797 151.800369 37.822067 53.029877 56.361687 37.143326 30.557035 25.989397 30.780838 72.226326 29.401934 35.197418 59.848576 28.091759 17.397291 68.744598 55.682045 37.041428 30.318687 6.379241 28.426416 47.808346 65.875702 51.769165 67.745682 59.346817 40.554440 49.319382 161.990723 72.532867 24.936171 69.216705 77.965416 58.161293 148.535110 28.658302 48.479427 54.057938 44.359783 120.300758 65.934341 38.409660 82.857216 61.155891 39.727501 90.713745 46.536575 105.610573 24.151836 65.407341 24.697746 56.610500 41.535606 41.900944 78.121658 105.102692 25.274326 79.902451 38.662857 59.424488 87.370483 57.229744 37.018108 43.783813 166.508530 206.244888 12.258689 53.950558 34.076996 25.617834 30.210449 22.302620 56.653038 34.897488 125.483421 53.445328 45.234444 35.841942 37.361156 86.144577 78.831978 106.956947 64.611839 82.842323 88.529625 23.791504 85.524010 40.199528 46.616871 28.645475 51.637650 51.775089 65.268646 23.235258 39.859013 51.271454 72.517097 92.103920 110.666779 55.230396 29.501135 45.355331 92.370094 61.060097 78.649254 48.143456 18.737055 115.106697 47.857815 61.615959 76.101509 64.433289 89.534798 58.981472 55.306362 36.439701 86.306129 61.044472 27.459562 65.679108 35.995762 56.076977 30.464943 63.542583 30.057341 77.709221 62.743122 80.315811 123.355209 35.130440 71.142738 94.714714 67.905609 25.216581 33.411915 67.823021 88.347221 45.491627 64.128845 38.502171 27.691721 85.555641 46.434116 47.497910 64.879135 43.170906 99.895935 32.711803 43.513245 56.621517 69.575523 32.644840 23.335182 56.811668 109.447975 47.683071 53.591728 38.895630 125.480774 38.966087 123.285095 104.860771 45.079105 54.955929 47.731647 67.632484 36.158955 47.765659 26.615700 19.152975 15.752160 48.211803 83.087227 32.330421 31.771528 93.908409 50.957359 42.297245 28.530773 84.921860 47.502300 9270.757812 29.976330 72.442505 30.792994 50.922962 29.649176 75.405922 39.466286 37.385441 62.837357 33.192562 23.814798 43.873993 29.674757 21.764500 25.391979 54.136551 34.592381 20.485756 35.421227 37.648800 23.359524 45.232231 26.456844 24.249973 37.778069 48.432610 105.240578 29.701300 54.675674 22.574280 39.204391 72.005775 55.945820 67.263718 53.310032 72.906372 88.401474 72.480873 49.729935 58.904152 24.655207 38.217369 63.431931 77.678596 50.985161 63.135918 49.180969 48.307796 67.005882 40.162064 49.412746 29.530590 19.098936 39.939072 38.331970 246.625900 101.627625 79.656593 30.242214 46.994812 59.573738 46.903809 67.501099 21.082554 63.314148 56.456905 25.123674 49.136765 59.768105 30.972912 61.085716 66.060295 51.577728 41.751774 18.874067 33.565922 66.033203 67.734726 57.172054 50.758728 32.608036 189.689896 48.053116 38.780987 64.961197 38.723427 64.705109 77.338318 19.539249 45.566963 127.585541 63.263615 48.387238 22.016773 56.432430 46.834274 22.975292 73.847603 77.634796 35.741665 57.770393 123.722595 
Conv_115_param_0 1717.874512 1867.464233 1876.264526 1711.275391 1683.681152 1670.859619 1689.610229 1675.037964 1776.694458 1499.789429 1437.936646 1581.076538 1556.430176 1391.822754 1721.454102 1715.922485 1660.521973 1851.958618 1360.197876 1504.126831 1347.251221 1526.642090 1514.419800 1508.943726 1827.801392 1269.408936 1696.251953 1603.409058 1791.624878 1728.054565 1877.077148 1290.381470 1543.075073 2022.462769 1390.759644 1247.639648 1677.283447 1646.046387 1589.968750 1821.675415 1466.318115 1652.698975 1890.114624 1620.836792 1567.090820 1340.032715 1966.942505 1678.369507 1533.397827 1534.006104 2115.516846 1529.357910 1729.814697 1350.982666 1660.149536 1616.943115 1609.323486 1631.596924 1951.531494 1584.991089 1402.231445 1568.640747 1903.648315 1451.079224 1663.319946 1918.629272 1554.697266 2200.079102 1324.937378 1170.718994 2262.548828 1281.157471 1570.438599 1459.851074 1710.782837 1421.796265 1511.040283 1474.908325 1361.750732 1941.525146 1411.648682 1898.891602 1454.572021 1619.459106 1482.183105 1491.411865 1306.903320 1993.641846 1697.654297 1865.014404 1725.656860 1622.408081 1662.845337 1857.107178 1620.625610 1426.816650 
Conv_117_param_0 877.887390 525.813599 997.779724 1887.718140 553.768677 675.299316 317.550659 340.902679 274.305847 499.261810 409.884857 617.984253 584.612915 560.833435 613.012573 690.001160 760.030212 691.250488 533.531982 743.979736 575.823181 1293.216064 660.462219 357.079041 1043.022217 700.949158 562.969849 386.621033 864.344604 477.702637 856.272827 517.035522 381.241882 495.948700 499.517334 405.998993 598.835022 769.887024 363.341278 532.364441 354.605225 402.476959 408.411682 385.783112 436.101898 384.431793 3481.041992 750.815552 661.327576 481.980072 1168.794312 593.156860 625.516174 807.525085 443.325989 604.391602 940.680359 546.567261 487.943420 661.468262 458.076447 412.382843 557.847107 623.362061 536.403748 477.693542 637.073364 516.739075 676.332764 617.807129 653.398804 494.208252 923.433105 297.278381 648.248230 497.292572 484.464508 507.236847 888.912231 477.317810 852.234741 425.462982 717.808044 519.779602 687.535461 600.375488 453.505188 391.990204 814.602783 522.687012 881.278198 500.803528 401.296082 629.901794 431.044037 471.979248 787.822998 582.889404 567.804688 446.536346 700.925476 806.018860 1022.313721 960.679504 549.754700 1365.903931 721.537109 483.098846 503.241760 493.847717 534.529724 375.828979 661.011597 374.789551 743.566162 499.359009 396.171143 496.957428 702.102173 364.856232 724.977112 594.867249 279.631104 588.579834 483.366852 379.170349 490.733490 385.679474 524.621155 312.542328 508.750885 474.896484 626.426758 808.386230 812.035645 1034.468018 654.639282 429.123169 346.929993 940.993835 889.280457 1223.581909 642.179077 406.753693 388.764099 450.036041 655.495667 681.377197 478.046570 936.315491 552.089844 393.487610 309.908051 586.697571 1333.882446 529.710938 621.151306 1090.005249 774.004700 676.666138 476.942047 435.954773 396.719604 792.951233 719.358887 465.567810 679.537903 363.533661 603.358826 604.235107 942.324707 712.457764 731.754333 546.911072 813.338440 570.159851 1840.663574 398.336334 466.856140 686.293457 1000.662170 529.175842 574.177490 557.740173 740.018372 324.094696 828.671753 821.783447 485.788666 693.378418 659.835083 451.801056 669.186035 700.409485 637.030640 917.153564 364.954132 554.400635 274.880585 435.938934 440.606110 453.948792 376.518707 506.046356 750.968262 428.228027 375.558350 588.312256 495.768738 541.312683 552.276794 406.759186 482.799103 1332.831177 487.740143 793.610718 599.857666 463.960327 982.854492 487.915161 402.066895 384.244324 382.140045 861.412231 698.273621 805.148376 656.953918 562.362610 344.356506 416.621979 578.447815 402.664276 592.010559 441.484406 916.514954 489.069122 938.523682 582.707092 930.858276 427.377075 940.035950 1284.389771 602.169922 402.960144 482.788605 799.071899 371.984222 468.971100 435.079834 638.055176 437.968353 783.776428 572.397461 327.417786 529.081055 580.230591 712.932068 430.081360 1359.721558 541.065552 643.665833 518.812500 806.568909 1259.952637 350.729889 294.334930 428.390289 394.343292 515.465027 826.685120 1261.715210 546.993347 564.071777 527.535156 423.769073 792.132629 527.421326 518.966736 658.381592 783.675537 903.791809 463.084595 400.368103 456.907867 528.821960 577.189880 456.470947 719.267761 476.044403 506.581207 393.675507 770.964966 293.506226 672.820374 472.577667 391.381714 358.452484 554.880798 629.428711 517.398743 969.499634 988.905762 495.616913 448.903229 631.116272 470.410339 1048.428345 607.227112 512.629578 457.552002 1493.608276 535.306580 989.253418 396.062439 401.565857 546.336182 586.201599 654.806580 603.237366 665.285217 677.245361 528.834412 454.551666 477.691895 1030.136230 444.923218 469.913696 378.156403 545.585388 389.262848 346.148438 481.573853 588.460266 845.309937 576.863464 674.864563 1172.973022 498.984955 751.650940 542.226562 635.132568 673.126404 588.734680 654.375427 731.778564 596.182129 5211.213379 405.557587 1246.533813 622.775696 501.868530 772.009766 854.633057 705.383423 364.270660 397.030151 782.182251 581.011230 706.280273 1254.705688 845.418884 398.681824 492.781525 600.783020 615.564087 379.852478 490.962006 653.508911 379.935425 356.894135 456.715057 661.603394 625.780762 553.509705 352.170044 941.889221 352.298523 578.803223 576.519348 615.864258 437.686371 436.509796 402.904602 460.325867 377.245667 366.831390 515.177429 1886.765991 467.137604 1843.066772 718.415466 1076.987549 539.098999 578.858032 484.914032 674.808838 459.896088 563.386536 435.135773 547.878540 1021.510132 410.634186 479.641998 485.542450 630.496521 530.707275 711.451111 5759.988281 286.824249 313.377655 880.284424 556.939697 592.118469 404.497284 1131.300659 465.618469 1108.875732 515.875916 872.823242 615.951660 782.546082 514.415649 812.726074 596.760132 1062.250977 451.329773 516.075256 925.354614 496.063232 812.526611 552.218079 363.170929 412.948456 1868.181396 334.858429 691.926758 437.110809 481.479126 1239.605957 610.367004 584.359070 475.194061 822.035767 519.704285 401.609222 485.359344 948.667786 631.282532 1001.572571 352.967377 451.294647 580.879761 283.045227 687.666199 841.645325 580.912048 396.524231 377.892456 753.592224 585.223877 670.655151 577.046448 352.316467 456.328796 448.106537 601.654175 432.483978 517.155090 503.557983 530.720886 482.840149 1112.017944 662.186157 541.606384 447.061005 472.870972 494.798126 730.331787 403.188934 615.730103 488.738739 435.014313 2205.350342 495.376190 472.633789 323.500854 378.757568 507.359924 619.677246 458.008850 507.661346 303.527771 365.249725 411.010376 591.119324 459.097107 526.005920 429.069977 592.854187 512.485413 593.887634 403.046295 301.789703 608.489563 517.192383 491.689850 508.757416 644.254089 584.524353 515.204956 628.934937 352.390015 293.078674 358.106079 639.245728 724.351257 477.809235 432.081726 463.512939 450.722382 912.111023 749.108459 742.136780 728.928894 486.909546 2499.614746 480.906982 703.650757 637.680664 595.341125 828.865845 2981.376953 647.928894 484.146484 599.641174 326.994141 364.379791 278.282623 262.869019 598.264343 2255.606934 500.557770 591.806702 489.163452 4090.675049 501.027222 499.739807 560.986389 940.526978 830.910339 573.020569 580.155212 474.988281 742.769897 356.057800 872.873901 680.586243 534.116882 445.505157 461.851349 433.573242 626.968872 837.903259 376.194122 435.717316 586.543274 692.746826 580.331360 203.640533 533.503235 880.385254 431.037537 516.148193 472.091522 851.807678 557.529663 
Conv_123_param_0 54.024292 32.637562 60.016418 16.670216 64.236954 23.757240 117.754158 33.965752 139.830338 56.129116 94.157181 50.230782 34.807011 66.345451 59.523811 41.051804 33.935516 40.402306 63.532021 55.715919 67.238937 23.991602 36.226105 39.148739 37.953087 30.601551 152.720474 134.323441 46.156025 44.424179 61.978634 27.896011 126.222839 36.865837 44.426937 68.843582 24.242523 50.635693 99.141266 57.596416 56.775143 135.121109 69.607811 112.068878 73.231125 96.465744 7.749164 40.873550 33.152161 63.059078 35.927277 25.514284 49.509396 34.170547 49.157631 75.490845 44.826138 73.931969 95.608322 32.739353 50.367081 119.212204 66.710251 70.446739 54.137943 111.462929 112.387238 54.642471 26.007347 673.448975 27.146309 46.985710 20.915926 52.525631 70.606499 96.441658 63.574585 69.610252 31.941311 32.727448 25.426016 100.581604 37.278210 63.599995 31.828770 84.059509 38.651012 62.476818 64.502289 53.773758 24.623981 59.334820 130.942810 861.334167 62.013916 145.808380 43.275845 47.153492 101.986488 83.643906 43.918468 33.488991 29.252422 42.507206 26.267788 33.775677 34.215801 99.167992 74.794312 46.032730 58.048500 73.832481 112.769875 78.390572 31.633656 88.346901 135.391815 66.635864 183.130127 71.984093 65.589531 50.686680 181.043457 36.350159 107.436996 38.751595 53.913021 40.264843 86.589935 83.687828 47.370331 41.647411 54.693020 33.563187 36.706566 33.177303 67.451408 85.499428 112.835022 26.710918 40.011044 26.622061 48.101719 91.009850 165.097580 78.878159 61.741394 42.539860 86.970741 23.693348 79.578232 48.266029 31.476559 36.086304 33.350548 58.411140 43.591209 39.134487 51.753639 39.263340 66.078377 24.758106 42.853260 56.818039 46.311153 52.798069 92.621048 72.430168 50.206196 115.758461 36.007710 65.749168 155.230789 44.418919 34.790810 46.057724 17.898302 82.063042 68.674400 56.346508 43.896118 99.925072 63.771389 195.823196 28.489002 91.319641 26.390469 25.402672 96.211708 43.162918 64.047546 144.196579 67.866440 46.437244 85.802834 37.148087 187.714417 64.685211 161.798050 84.258934 99.019249 58.155827 47.123924 112.124458 67.956413 77.972679 114.748108 144.962082 40.708580 50.499393 78.436211 67.625275 42.403145 26.484192 76.671066 43.381901 77.090668 75.589996 62.753448 135.450729 151.159134 61.614326 67.485710 47.429775 23.596600 49.318665 57.295792 46.573887 80.568810 91.083298 77.690338 40.959995 96.609688 84.404205 34.076500 57.068455 46.211014 79.363388 72.709038 56.890724 40.730347 17.470909 64.504036 92.752190 78.128525 19.935863 100.989708 60.639069 221.828751 60.040024 76.107986 23.737675 78.650673 66.533485 32.280273 47.879108 26.327740 70.276367 37.221409 54.166386 37.515282 63.530922 62.004353 53.062130 96.699234 127.542351 41.571846 78.549873 66.854912 38.006550 20.669199 80.078026 54.325878 69.644226 59.071644 67.700050 67.185837 54.981636 73.024933 63.639858 19.405748 85.512932 117.139153 56.180092 47.230133 75.432732 47.863895 65.877319 50.537868 40.203888 74.558968 42.848534 62.234596 31.371069 115.945328 63.688423 122.458069 59.643051 101.420998 25.387619 19.732016 39.741085 61.444386 97.809410 104.437653 101.446510 42.296734 54.608414 81.239563 31.427128 31.787909 59.786186 23.749960 115.263092 44.444328 52.549313 19.488657 47.864750 28.939383 73.027214 63.339558 101.012390 38.700161 45.004169 32.386032 115.674484 80.590706 82.083862 30.731218 66.800667 73.215973 34.508995 22.564236 24.992262 31.123211 75.443428 36.496529 132.958984 39.062504 59.862396 28.100513 55.570580 26.112123 55.047394 34.374863 22.995615 8.394158 67.235138 50.568008 79.873726 142.383865 63.716206 5670902.500000 51.985020 150.801437 83.909943 43.403595 73.456924 20.350645 36.499134 67.543030 128.538010 76.079399 37.062340 72.332993 122.840958 20.882954 44.912968 56.591934 73.159828 84.886818 24.857197 52.291817 85.686905 126.276207 30.028620 62.992619 52.581852 38.870129 53.055237 91.306740 84.204582 73.680511 73.615402 227.467636 132.106339 52.993851 18.665813 152.060532 17.950478 29.834887 33.494125 45.441730 76.434364 73.083176 59.124111 68.587563 64.059746 68.708885 28.461922 35.732025 123.446106 45.104038 49.710773 73.994530 118.691673 26.431101 5.761351 143.048096 84.551056 36.894775 40.703945 83.484131 63.147182 39.160694 103.141922 15.300813 80.221779 19.961573 54.200340 51.706326 33.211342 43.727428 73.478310 35.210442 29.937677 153.529694 28.891039 114.679779 38.330200 78.036903 134.860321 40.051392 14.066321 72.386452 120.575851 80.622223 41.176926 34.192917 88.246895 60.351982 57.590725 22.932251 62.353149 114.297554 51.527355 50.760048 46.768486 28.434793 132.684402 117.044884 68.805054 27.156717 64.410858 22.586353 58.447430 106.298904 220.144180 23.322849 80.038666 44.758720 47.389271 74.376434 59.870510 69.537674 54.213032 56.355598 100.331940 85.987823 75.417915 64.408211 27.872194 69.730080 122.198784 56.961628 52.600792 83.513634 114.819168 122.229240 67.961380 54.948895 34.592022 8.085273 31.884741 58.719410 90.179367 167.597046 53.502575 89.655304 26.095554 57.387188 58.165886 100.692230 74.102737 37.369549 68.627586 55.191837 91.463570 51.062233 88.308151 77.470535 60.376060 78.478394 32.099323 85.167030 64.957077 63.008289 76.127190 48.404839 114.533554 88.569946 107.408264 87.871719 120.958511 42.020206 30.223761 27.889290 86.679420 57.869991 80.415489 38.368931 71.583321 37.911526 22.114725 107.839600 13.739897 63.955654 61.069874 19.616304 89.221565 30.876099 11.878533 27.749144 45.962635 48.592190 117.484451 173.337433 125.879044 72.778313 35.267052 13.424979 94.471481 56.887936 45.464851 8.021585 63.818565 41.212635 51.935799 20.806683 67.250710 67.297455 120.587967 120.015228 24.360218 160.584930 52.229233 52.933048 66.984642 99.342674 105.354073 80.154083 57.360889 32.548649 171.413422 96.294838 62.399071 34.965908 63.011024 213.834396 72.338509 39.085064 87.651711 48.248714 90.812965 30.563734 36.108467 
Conv_129_param_0 930.147949 898.323547 1197.665161 1032.363037 1110.814209 869.457642 945.609802 1170.346436 984.512329 881.661133 1037.447510 943.705139 1011.438477 984.445801 999.804993 1093.025024 855.152039 946.490051 844.243835 943.663452 746.594788 1069.681152 893.727478 808.502563 988.576050 990.362366 961.874939 1021.924316 1089.985962 923.318359 968.276794 816.254089 1057.778076 776.949707 930.865417 904.271606 846.189697 1037.495972 730.644104 754.473877 1155.637085 771.841003 852.782288 586.581482 1038.847290 885.422241 1035.654053 1022.149170 1001.129028 1138.395630 552.332336 876.412292 900.926758 1147.501587 1002.840027 1247.622437 675.282104 1120.187256 626.240540 994.483093 924.479614 730.981323 856.513123 956.672485 786.629883 709.642334 1110.336792 1090.996582 915.923279 1045.796509 1127.368164 1156.578857 846.134644 520.339539 796.463013 623.656860 578.651367 872.456055 944.178406 1057.662231 782.052612 941.718811 962.658386 906.871826 814.308655 1045.252930 979.222534 966.728455 950.593323 840.130249 1164.772095 599.548584 1033.841431 932.870056 842.482117 1260.174316 
Conv_131_param_0 1335.258423 1127.379883 1439.684692 1231.779419 1356.935913 898.198120 1450.026367 894.594482 1012.455078 1461.008667 883.479858 1335.862549 983.765137 1077.059204 1419.375610 1321.686523 1070.365845 1345.046265 1202.211426 1178.582153 1214.507202 1282.074951 1304.556396 1156.224243 1333.414673 1322.273804 1305.758545 1413.295044 861.548157 1345.071411 1333.299561 1071.641479 1090.397461 1132.319458 1728.675171 1118.504272 1126.816772 849.784302 1159.946411 1024.681396 1140.328979 1341.290649 1420.079712 1318.616943 1238.806274 942.152100 1018.336853 861.617920 970.642212 1099.654419 1327.523560 783.262329 515.853394 1044.599243 1392.920044 876.352661 1111.818970 926.993896 1908.480835 1063.358276 1216.053711 1106.368164 812.180603 922.275940 1098.982910 987.861206 1063.497314 1368.787109 1132.931030 1248.226685 1091.245850 1033.345093 794.791992 1255.097778 1292.859497 1788.488525 956.245789 849.232239 1273.115479 1496.947388 1028.866943 812.397461 1023.127136 1039.148560 1217.735840 1167.718262 1321.500488 1347.486328 1084.539551 1122.039917 1177.512085 1232.321045 1008.761536 1358.948364 1340.300903 1525.052612 1262.058594 1078.780273 864.352051 905.534607 1452.446411 1181.930664 1311.633667 1157.401611 1078.463135 1561.286987 961.089233 1295.012085 1249.233765 1160.860596 884.851013 1213.691650 1300.863647 1385.163696 1395.751709 1176.767334 871.328430 863.165039 1244.007812 1266.478516 1588.668091 1110.898193 1348.774902 917.119263 1395.509521 1438.828247 1045.277344 1219.925415 1119.383057 1005.272217 1318.224976 1116.658813 1602.244385 1120.102417 1134.636719 860.997681 1076.225098 1130.691528 1186.856689 933.386719 1370.331909 1434.292603 1272.392334 1141.111572 1045.241455 902.631836 1085.269409 1237.741211 1325.496826 1193.478516 893.153748 1211.481812 1115.870605 1230.499878 950.379822 1140.932617 1451.170654 990.241211 1139.158325 1270.593872 1471.948608 1546.393433 1252.966431 1221.500854 1189.004517 885.728455 1226.434814 946.281738 1116.165161 1334.020264 1399.819824 1200.807251 1279.826904 844.523865 1283.985352 1024.760620 971.636780 999.346497 554.492554 1145.546509 1368.395508 1324.314331 1390.118774 1132.643311 1529.849609 1357.513428 1178.693970 935.352539 1148.092773 1332.966064 1447.760864 1352.627441 1236.578613 1450.265747 1511.116211 720.247742 1139.408691 1408.242676 947.632812 1318.754761 1192.789673 1107.843262 1243.360596 1203.747925 1505.771973 1213.141846 1336.167114 1005.221741 1194.894287 957.760681 1503.852173 1172.588989 989.333313 1178.101685 1116.430176 985.900574 1142.701538 1418.951416 1476.837891 1050.424316 1161.552246 1673.621094 1115.152832 1505.324829 1126.403687 1209.107422 1318.101440 1023.048645 979.946899 1248.580566 1344.192261 1056.443359 1354.914673 1274.773438 1328.154175 1522.866577 1187.835083 1316.077026 1412.153931 1240.309814 1298.051392 1262.372559 1056.398071 1337.724731 1271.065796 1180.103149 1278.080200 869.910767 1122.974487 1160.849365 1006.663940 870.945557 918.243225 1379.975098 1314.920166 1194.036743 1002.070923 1313.893799 1144.526733 1124.937378 1030.074463 1389.565186 1174.646484 1450.724365 1101.207642 1104.769897 808.341736 1013.988220 1110.389404 941.807678 874.684204 1207.236328 1291.664795 801.928833 1424.177734 1429.802490 897.542908 1277.434814 1142.742188 1159.545532 1254.875366 881.415283 1508.273438 1139.541870 1053.970947 1082.854126 1011.503052 1470.409058 1028.461182 1159.169312 1738.526001 1274.708618 1276.913574 1266.992676 1059.249390 1331.522461 1401.001465 880.232117 1283.192383 1030.224609 1255.174316 1071.248901 1070.275391 1444.269775 855.115601 1287.147705 1352.623169 1216.248657 1921.737183 1128.151001 1327.307861 1261.793579 986.676270 1240.762207 1262.326172 1141.216919 1227.891113 1395.077148 1114.144897 1011.171997 884.749451 1156.175415 1222.014282 1407.880493 1164.038574 1165.275757 1607.531006 1088.876587 945.454651 856.886597 1192.446411 1030.325439 1350.324219 1024.375244 1082.762573 947.122803 1294.853882 1132.000854 1533.676514 1203.709839 1367.151855 1152.582642 826.168213 815.324707 1112.328491 1080.953491 896.479370 832.818848 1624.834106 1374.133301 889.255615 1266.567505 1288.744629 1050.893799 1047.371948 1621.830200 1092.915649 1196.776367 964.734985 1224.603149 928.824280 1145.064819 1038.939575 1143.087280 1034.652710 1238.849976 1204.529907 895.095276 1039.764771 1349.560303 1191.745361 1510.054810 1630.074463 1283.592651 1120.141968 1593.985596 1427.383545 1169.033569 1015.387390 1392.145264 1085.737427 985.053833 854.993652 995.152649 1152.611938 1370.866943 1436.094727 1057.421997 2598.181396 1060.366333 1463.989746 1307.298340 1047.316162 1273.664551 744.924438 1202.469482 1290.342163 1472.780884 1146.712280 1482.507812 1488.676514 1151.322021 1146.071411 1084.475464 1108.893555 1117.988647 1240.498535 1362.048462 1743.194458 1321.142090 1208.705200 1144.304443 1608.632690 1209.402832 1043.117065 1229.667603 2987.368408 1074.559570 1012.542419 750.875671 854.425537 1120.584351 635.346008 1463.097290 1231.211548 1511.114380 1297.472168 1144.556641 1277.380737 1068.474854 1325.748779 1279.859863 1157.035645 1131.837036 1601.633789 996.234009 1111.295288 1089.359985 1449.990845 934.841797 1177.718018 1269.886230 1323.683594 1517.112061 902.396912 1087.935181 1456.733398 1057.231812 1422.801270 1048.298828 1278.447754 881.886169 1276.484131 1140.005981 1057.994141 1200.368042 1740.061768 866.193176 1126.080078 889.578613 1126.568359 1323.127075 1242.284912 1209.462646 785.847473 1047.410522 1055.010986 1292.222900 1009.113220 949.200928 1320.921875 1023.505554 1514.541016 869.166809 798.126892 1006.939880 1050.656006 1011.089294 1253.286377 1303.973633 1499.021484 1115.490234 1087.287231 1046.922485 1371.645264 1093.217041 1206.665039 998.227783 1081.272461 1307.539673 1087.773193 1050.085449 1184.392700 1435.211426 1412.892700 1232.870117 883.591003 1005.145020 1136.144043 1630.491577 1180.796631 1417.102173 1312.466797 1426.533447 1061.818115 1097.176392 1358.611694 1189.974976 1440.015625 871.306885 1294.973999 1084.079834 1076.362061 1041.088135 1166.160400 1297.354736 1269.586548 1599.267212 1151.153809 1283.412842 952.762878 1303.589233 1497.111328 1070.657471 1365.351196 1263.284180 1174.963745 1288.965576 1085.829346 940.950073 1131.052856 1415.138794 1466.393311 1177.783325 1037.251465 1085.053589 1422.960571 931.611023 1355.931396 1277.281494 1200.168213 1441.604736 1309.591797 910.476379 1266.760010 1206.654053 1282.078613 824.213257 1048.743652 1165.245117 1170.631104 1343.747192 1340.773560 1372.882568 955.555786 1207.803223 1546.209351 1030.329834 1047.234985 986.599609 1126.308960 1091.792236 1309.324951 1062.517700 1101.695679 1242.648926 1266.703613 1452.060425 1106.421265 1328.024048 1413.338379 1075.890381 1108.528809 1037.872559 1085.180176 1023.436096 
Conv_138_param_0 1076.139038 1099.636841 1196.476440 343.919891 1099.446045 1120.034668 1061.237183 1146.880493 1215.230103 963.036072 604.849060 1015.006470 1047.450684 1042.467773 1147.457886 835.675415 978.374512 905.926758 1134.539062 750.762024 1015.648987 1252.156982 995.481628 1102.287476 1045.871948 1062.604492 1100.911377 1143.421143 1056.036621 1004.755554 1109.585938 1135.145630 1085.918823 947.643127 843.787964 850.637329 995.888062 937.372131 1014.030212 1046.918213 1081.382935 1031.491577 1105.098755 1045.516968 812.089722 795.259827 799.242615 1071.997192 778.328796 976.403137 1011.196533 916.517822 815.406860 843.748047 1210.148438 849.980896 1050.612183 988.831970 688.421082 942.656128 1010.729736 882.043579 742.718140 1159.647217 1268.342896 930.498901 1241.920532 689.587524 1149.987061 962.590515 743.117737 940.786194 942.551575 952.364563 896.745544 862.598022 950.537048 1104.979614 1046.378296 1004.244202 761.026245 627.572205 922.166077 1078.824585 900.739563 1310.615601 675.969666 856.889221 1011.514221 1023.029968 535.298035 986.817932 1099.263794 1261.938965 1214.952881 1149.311768 1074.262329 1083.910522 1161.336548 820.502808 1159.306030 1100.525024 938.803467 1031.895264 1248.971191 872.692322 1084.832886 1079.706543 1078.450439 1035.556519 1020.950195 1091.935547 1023.184570 1139.031982 977.779053 705.560425 915.769165 678.936462 786.088135 967.342529 600.640198 1013.474365 970.093567 1127.195190 966.407898 945.688171 737.316589 1105.236450 
Conv_144_param_0 103.042892 56.170353 61.113216 54.929508 55.195892 49.701492 57.808434 56.232426 55.871544 62.800678 53.041798 47.513920 47.588551 49.805988 57.432293 57.876938 60.332985 59.453316 59.054218 63.505672 60.479797 57.196857 64.093224 61.094593 52.746639 56.878941 54.880371 56.384937 56.053810 61.059547 48.420128 62.543633 57.590370 55.947365 59.353840 56.644573 61.026840 55.919479 56.050419 59.585480 52.297794 57.167042 46.199436 51.747231 52.730865 56.245419 49.606785 57.466129 46.790676 41.621906 65.953163 51.975319 63.393822 55.443146 53.378479 49.670689 55.997658 49.088371 57.822350 53.705223 51.080536 54.651340 53.657394 61.423122 54.403996 52.644337 47.749050 53.756489 46.214893 56.010948 59.390724 54.703491 57.937107 65.282684 52.356937 47.872490 56.161842 41.704788 53.591305 46.086548 50.128418 55.264011 53.347126 70.332626 55.715324 51.492943 62.449814 54.719467 64.432457 52.402058 44.556652 50.167278 53.658741 56.911438 56.007713 48.486004 45.189243 52.056988 59.431881 57.699589 51.869408 51.248127 51.198185 45.558086 50.053028 51.257290 53.948479 55.413338 68.608299 55.468357 52.975060 56.802429 49.332756 50.594955 53.903015 55.071449 53.890091 59.112995 53.117027 45.946861 49.393528 46.946701 56.697845 52.907093 50.724598 56.069180 54.550842 50.342182 51.783981 57.248093 60.175854 53.263374 52.917843 43.548008 60.099468 59.042953 60.384163 59.894558 50.422916 44.013206 57.393749 48.323402 50.624218 53.629543 59.063942 57.383892 48.012024 55.187256 59.820992 56.366386 54.486099 66.291733 51.317982 54.253845 42.146442 62.539352 65.820724 48.900974 51.880531 55.373051 59.284782 58.448486 60.124344 70.593681 57.034866 53.994354 51.919231 58.808025 46.919071 51.245804 43.568546 57.514633 60.688808 57.721172 51.939251 51.439972 62.074303 60.306995 59.850193 50.206989 57.770958 48.838928 57.992771 65.043839 53.914883 40.420620 62.622078 50.233810 60.736210 57.590950 48.824791 49.568962 55.514355 54.069813 62.511013 48.647469 55.620766 51.903893 59.806416 43.207874 47.935150 51.300259 56.541557 54.760212 61.148418 51.538418 47.390942 51.383591 59.762928 57.610962 48.672485 53.571987 57.836472 49.453205 58.043251 51.086845 52.122974 50.170483 69.197861 43.794468 59.373177 50.401226 49.679600 50.770920 48.400490 54.924240 58.912991 51.755966 49.796474 54.963993 48.675480 53.692600 49.578918 60.662483 54.517815 60.385178 49.560616 58.275745 45.178898 51.327396 55.973022 59.758076 56.555649 56.078720 57.257420 57.100471 62.003372 60.775501 53.585232 64.297005 52.076778 56.517597 62.030426 57.992847 58.943859 49.507374 57.949879 55.437450 57.264519 59.791962 59.619350 43.563637 55.924435 56.774448 51.574669 52.088310 56.205952 45.650524 63.440514 69.606819 46.403744 45.932667 54.217834 54.260216 55.018448 64.473656 56.075588 54.970200 66.140991 49.402367 58.740223 49.966549 50.782349 49.514061 57.850471 53.543800 50.653168 52.004345 49.568787 56.975269 49.238873 57.016136 52.878815 53.626804 55.714195 58.311043 58.162670 57.878738 47.689945 53.279484 53.286999 62.383377 51.741409 54.789150 59.365410 55.724499 61.015869 52.564766 58.606689 56.970177 45.237801 54.458221 59.889652 59.379337 48.912704 51.291245 51.675884 53.060398 56.207897 54.259991 53.062073 52.675613 61.660362 39.015697 39.245377 58.956745 51.249897 60.213207 49.818848 53.583378 57.226208 61.205379 45.248295 60.714825 70.578949 49.740185 51.956341 54.891262 55.159145 56.998253 57.044945 58.763916 59.388760 52.200207 54.442036 54.741386 53.765133 55.551498 61.050964 59.841076 59.366783 56.037239 54.490143 53.958065 64.828224 50.057072 58.194187 57.180538 53.904804 60.381981 56.240986 60.966846 51.984188 54.676579 63.003513 50.884762 63.686802 56.743042 52.822002 57.090210 45.584858 57.807270 59.115746 58.629543 60.144608 43.859833 52.601524 61.360462 57.690723 57.031605 53.891117 61.426090 61.727516 47.803799 53.088081 51.739590 51.892414 46.998547 55.003876 60.304020 52.899345 58.747803 58.971424 60.222694 53.609787 59.694408 61.466476 70.999413 52.469231 44.518501 56.769306 57.647606 52.995216 62.094551 44.550743 41.124226 42.489334 63.402756 57.615444 47.421124 53.562325 69.890152 63.827686 58.474751 54.779716 59.371670 49.595867 57.594585 60.350334 45.946449 55.089966 58.730526 60.493282 54.505596 56.829021 56.373077 54.656338 53.382771 55.654491 68.276237 37.918678 64.917137 49.966938 56.188530 54.588081 50.848377 67.537498 54.601086 53.917595 56.849716 60.881458 50.743843 48.421131 56.570225 66.712349 47.312481 50.597626 60.994106 61.332588 64.463257 55.654919 50.264740 52.331760 60.021057 47.997444 53.266796 45.568531 57.581593 45.614597 57.126289 67.674011 52.345810 44.806587 68.802238 65.209358 48.178501 47.966999 58.698750 57.423149 58.133987 55.508911 55.133644 48.927929 56.199451 55.793026 60.152050 62.896515 56.414124 56.652851 57.106865 55.233303 59.411087 56.056572 57.708183 57.496861 60.399864 58.622990 62.743046 50.147179 67.213943 71.096519 55.005749 55.797680 56.267483 52.486881 61.673443 58.920792 61.147240 47.369484 50.685478 46.901299 59.670250 56.978745 60.954861 56.426189 62.184647 46.157749 61.407524 59.860214 58.931984 53.732895 56.191799 45.119865 57.860085 46.838474 52.615337 55.872494 58.409744 46.799068 68.994072 65.576820 49.346138 38.987091 52.645855 64.036858 47.092140 54.380398 40.948986 57.136139 63.964767 53.005623 52.099503 53.898212 57.723160 40.580227 64.058472 58.229622 52.227043 59.539730 56.761478 41.278671 54.629845 55.581810 71.658379 63.455074 61.458717 54.201107 54.346176 53.831654 52.984512 47.273243 44.969162 58.873444 55.859169 50.960808 50.700592 61.921436 46.219685 52.525936 59.887028 50.573997 57.768852 59.292919 52.522373 54.459656 66.916870 47.983669 61.364788 56.941868 62.603767 48.147934 49.389908 57.319275 50.943344 53.300606 43.132317 53.186428 59.593098 56.422501 54.531483 51.431488 55.536217 59.388435 52.375999 56.546661 62.129822 61.506569 50.896873 53.961678 58.508484 57.483303 60.592350 54.613018 52.098320 57.801319 59.046730 59.925846 59.431171 56.830296 53.340748 49.579647 61.654713 54.318336 62.801411 53.749367 59.169132 63.195286 53.169281 53.741081 55.239731 55.264477 47.923752 56.269711 53.933239 53.607246 60.021008 58.900635 61.308125 58.199989 57.359436 50.963810 61.971489 57.844666 58.904133 48.994228 55.458435 49.585777 49.690105 51.807713 54.313606 60.228878 59.619137 51.574627 61.835495 48.984676 59.572857 54.864220 51.074173 60.000278 60.293758 51.632477 40.575832 52.621265 56.119450 60.153683 53.077454 58.236778 58.658791 59.805798 58.819920 53.934692 54.440762 43.860851 50.192924 52.786617 53.706535 63.970966 60.897991 52.893177 61.035522 43.348957 56.835014 55.117168 57.788364 59.670147 59.674580 52.144485 58.082409 50.491440 54.167274 54.894669 56.846870 54.588139 52.061172 58.810570 60.976242 53.375057 57.672565 50.263763 57.070122 51.457829 42.771339 55.591728 54.982533 54.492802 59.029377 56.974483 54.553566 61.808544 50.972691 49.152428 46.199787 42.474873 57.047337 56.194736 59.437126 53.889141 45.712738 54.215824 54.639400 48.041855 49.142136 49.294292 61.872108 55.333752 55.990295 65.869690 56.273903 57.933422 60.617474 47.051800 62.479061 60.775372 50.313988 45.635319 50.371098 40.903660 64.373947 57.897171 51.569054 51.429298 53.637493 59.185837 51.051006 52.627369 60.790920 57.787296 49.236572 72.548164 52.723026 54.389858 49.037094 49.381268 50.545574 42.779572 51.867756 57.021923 57.040337 57.405674 59.929279 59.775692 64.340172 49.191250 60.086254 49.191357 57.022598 54.392593 60.487999 51.736137 58.603748 58.063530 55.274731 58.725388 47.968792 57.409233 55.106522 50.882511 51.085835 50.965324 52.545559 45.527466 58.671288 56.688511 59.804737 55.820423 52.471733 51.243679 59.347893 42.656681 55.881245 59.726135 55.692955 53.429214 59.435356 63.290760 59.706226 54.753387 48.369553 47.830875 56.869484 52.910469 60.559193 55.496124 49.817154 53.754303 58.968094 58.940807 49.284985 44.354366 54.389931 54.719040 70.944153 52.827938 61.823883 52.092937 54.312801 64.409370 60.803265 56.398975 58.078152 69.045700 51.235073 52.082237 60.709942 56.398537 53.522163 54.387268 66.626877 51.940960 54.897232 51.822239 59.232433 55.576752 58.303696 47.608601 59.692314 53.866074 56.033291 54.538189 52.758709 53.077808 62.884151 54.893852 47.610424 51.463818 66.261765 42.779541 57.169037 58.944950 61.289093 62.200115 49.847694 53.365307 59.917221 58.117939 51.038769 65.287285 53.624577 56.315800 54.349098 58.749371 54.069351 58.874016 49.659676 49.403423 50.501534 45.908794 56.584480 69.538124 51.337887 60.253849 50.193466 50.082401 50.179314 51.184479 54.190907 53.471954 60.041008 59.338394 50.909878 45.367058 50.785912 44.363338 57.247360 50.023567 63.388317 59.709717 60.195549 63.315208 58.156841 49.174839 60.039032 50.969593 58.667397 53.856110 54.545013 69.263092 46.541599 54.082798 53.678944 39.757610 57.876266 46.672924 55.014084 56.767380 69.847527 49.336884 46.648258 60.306625 61.853100 47.698036 61.495224 58.564594 50.401752 64.657928 62.082039 62.158401 58.024075 56.261173 54.253021 67.083260 50.158195 51.692516 53.057240 55.693089 56.662636 47.187641 61.133282 48.902496 55.224045 59.595921 52.633606 60.902306 48.812138 51.628963 61.586864 52.808247 62.558941 44.880783 60.746475 56.429142 51.523388 58.579254 58.380604 42.889866 59.508083 60.664680 57.593254 49.157593 53.750015 58.018177 53.975353 55.626995 55.953449 54.893547 61.102261 53.007111 61.849518 52.786579 40.602497 46.672806 51.429661 50.997959 57.243294 57.650288 58.545784 54.096279 58.941109 40.029396 55.265835 58.237331 52.206726 41.267467 63.252949 58.612408 44.373459 47.078644 68.448982 56.327709 52.843918 67.371933 54.398514 54.298008 60.829002 60.919693 45.719490 53.017071 45.860569 53.052959 60.727749 49.642349 56.305008 51.235088 55.710983 54.841492 59.322586 53.411755 59.818432 40.219234 55.481449 56.060192 42.586231 59.384762 53.095016 57.585171 51.559486 48.485062 41.556377 69.739128 46.221478 62.279091 51.536491 54.027370 62.802071 61.356445 50.812004 48.039082 53.342739 54.104408 51.597412 63.506828 62.947227 55.306736 62.405426 51.401539 51.908691 48.434204 52.724983 41.398026 57.129227 58.389622 63.468941 58.453484 52.931915 57.194340 50.464073 44.656853 52.380554 59.202953 61.215199 50.429623 49.670532 52.227722 45.180882 59.855030 66.426491 53.495754 47.497402 64.248833 59.496204 57.028706 52.072220 47.682098 48.915085 68.165611 48.587032 49.362328 67.422897 58.401291 59.779507 47.507999 43.690681 44.457489 58.915325 37.496689 48.503838 62.681450 57.090858 54.717251 47.119987 42.325924 58.559425 56.278980 58.914349 53.303677 58.441006 62.223473 58.388432 56.553829 56.331974 60.544926 62.291309 59.734840 50.524479 59.800446 56.344673 36.449265 49.956715 69.837761 49.223557 53.170883 58.970047 54.572422 61.126919 45.801144 52.575436 55.116920 51.481625 62.076538 55.686947 51.220844 45.361515 52.245876 65.919876 52.008549 58.773853 47.451324 63.579578 58.415989 58.449230 57.834160 56.221867 39.145748 58.385109 59.160542 56.827271 62.272385 50.256828 56.301792 56.496727 53.294277 43.765659 58.365963 48.395439 46.470158 59.144272 53.620430 64.243027 55.503277 50.603542 53.931557 56.410652 51.375114 59.644573 53.211033 69.932465 58.956936 56.947647 50.070312 56.715221 45.548931 48.339725 57.411064 52.974415 57.565048 57.338676 56.588470 49.997429 52.042290 56.068977 47.732464 57.426399 48.997166 57.624386 59.208462 53.838428 52.712357 61.782207 53.100311 49.671009 63.412788 49.088032 43.723068 55.314072 59.967648 49.551487 55.792160 63.858871 55.406281 65.629929 41.246212 57.356144 52.257027 54.376995 61.462704 42.168129 53.209892 56.872841 68.230347 58.802887 53.167801 51.112766 50.742130 58.791336 61.019722 57.832012 68.457840 49.300549 53.074142 58.633648 52.781040 53.352268 53.731586 62.562473 56.997643 47.873955 62.231373 67.580437 60.622284 48.631630 52.394264 61.163528 51.171776 53.219566 51.221550 54.695190 61.743214 58.857452 59.388042 44.984791 50.391357 54.740070 56.492172 52.692589 53.526176 56.818165 52.105587 56.085945 44.847706 60.562401 54.536816 46.646774 61.922451 52.060837 55.143620 60.409576 50.339275 56.621548 41.839855 55.076984 46.077095 49.552128 48.912598 47.244698 60.026852 46.774364 41.099236 58.326012 60.119659 60.080128 54.261536 51.883892 56.765202 64.491035 51.629993 56.709877 56.029518 44.459694 55.881882 51.569538 47.558575 53.457714 49.833389 51.525177 52.313557 57.083408 54.215275 54.189819 53.080563 69.451492 66.157310 55.643970 67.346786 70.045158 56.766739 61.731651 52.089653 56.188507 44.598568 57.850208 59.434952 47.058167 55.142273 54.588566 48.458309 63.528008 58.930996 52.125084 58.368385 65.152977 56.942192 61.296745 64.575287 54.620899 52.137592 58.739525 47.728519 46.608692 61.137115 59.173462 62.272648 57.192238 58.641285 57.181187 53.182190 50.313179 56.763691 51.856480 60.643188 64.295189 59.714531 57.571362 53.670578 52.390301 57.214863 64.286148 50.600368 63.449837 54.750061 43.489353 53.264587 47.488083 56.528549 57.423855 51.369564 54.258900 52.696892 53.748013 51.274769 54.206364 58.164825 63.439667 61.227978 50.510006 65.034004 52.273060 59.161007 58.944012 53.294773 67.643829 61.836620 61.127644 60.079334 54.708523 44.194084 58.458649 50.919201 60.966888 50.438580 54.797661 60.317490 61.110497 55.201012 46.294025 61.820576 50.550934 66.671028 57.017117 67.544533 66.081688 63.801029 52.563675 54.032604 55.228893 55.255085 56.978207 50.293358 54.703968 54.209656 58.994289 48.288754 63.255623 45.999535 58.899799 60.926826 53.134102 51.922924 57.868332 55.040241 46.414719 61.785789 49.027355 49.848782 52.517159 46.112556 46.082424 52.754044 49.372337 54.828903 53.981567 49.878525 58.311302 69.778694 48.185078 49.585567 50.510921 57.749733 67.951439 47.418934 54.129532 59.882206 45.822060 62.136822 53.787876 58.166958 55.957592 52.969536 47.593220 58.309349 69.451126 54.229618 51.740189 44.355556 50.449631 48.754486 52.355663 53.966663 54.272106 53.278038 60.879414 61.092926 51.333366 54.210220 52.138008 69.769562 55.217651 47.095600 57.796993 58.128429 53.574520 57.434307 61.219162 49.938656 59.977135 42.264053 59.065651 57.164722 44.540745 47.637074 47.911091 52.633167 47.267601 52.171009 65.071762 57.940876 53.642422 60.367413 55.806938 51.272770 46.090294 53.322998 52.615398 56.616154 60.325546 66.479256 64.692947 52.103813 52.940121 67.884766 51.068745 68.155571 54.079105 58.001923 57.327854 55.238224 47.164608 51.562370 42.745815 54.982849 46.869938 55.599323 59.629257 61.104847 54.790817 54.612141 52.857002 53.156788 55.710136 48.038464 55.847218 63.183449 53.591213 59.274555 55.551762 53.777363 59.512199 68.786469 57.006317 58.118752 58.525093 49.439075 57.505108 56.176407 64.412903 54.451740 59.776665 56.766022 62.372375 49.578762 56.206341 48.670055 57.556389 58.914967 55.156261 63.380020 55.823063 56.241653 59.767986 59.561394 48.574402 55.224483 52.108883 52.871677 50.281406 49.597057 58.545330 61.501621 54.708530 49.892178 52.338211 66.241142 53.011715 49.289619 55.555962 55.917049 50.181999 52.647812 61.888729 58.276230 70.086510 49.605488 46.584297 51.450554 55.510616 63.278645 65.376587 49.820702 56.389313 50.871662 66.589714 57.554031 58.115162 55.807617 59.721874 47.477360 52.437294 67.687889 56.077450 54.014973 60.429432 54.694016 57.564026 44.761215 57.575691 60.162731 63.513573 57.470264 54.937672 54.226234 58.491547 68.688171 47.833469 49.723423 46.629787 48.065617 47.482166 54.400585 55.780735 60.278191 46.684002 43.544418 52.213802 59.402451 50.941669 52.902229 45.249538 61.501343 54.858604 61.349976 60.522549 59.185711 55.349293 53.463707 60.020550 61.636497 68.155426 61.702690 53.312927 40.053959 59.466305 59.551846 47.565315 53.956539 49.559601 50.673763 61.524616 60.618546 55.447495 56.395794 54.432957 53.819614 48.878002 53.903191 53.204533 61.452934 65.087036 55.583851 60.155060 47.887177 62.147472 47.220852 63.863186 50.796787 52.799717 49.219242 47.226845 57.506035 52.864105 62.410347 42.607300 54.958786 49.168591 46.291443 55.269093 44.367043 53.858498 46.413647 58.553558 59.487038 54.332718 62.263424 47.183578 50.707489 44.100174 57.131058 56.468307 52.701008 54.520866 49.657700 54.755962 45.576153 58.325375 49.490253 55.106525 53.373959 55.813118 60.096100 61.319344 54.984650 57.810139 62.975639 57.697746 48.465694 56.653828 51.803009 37.983074 53.791416 52.948715 51.850090 72.140945 41.157257 65.954330 54.760159 62.683491 54.050217 58.183865 57.451336 45.276119 58.330101 60.865959 54.387222 39.917347 55.782188 58.967976 54.212933 59.242737 56.921280 51.216267 66.697075 52.606289 50.628498 48.086315 62.598190 55.384335 56.508503 56.940273 46.189571 52.107086 53.047916 56.607986 56.781189 49.206863 58.888641 53.799671 53.226490 53.414944 45.792057 58.913418 57.836056 56.809917 59.585354 44.512150 59.912792 46.836544 49.078632 54.225025 57.915287 46.857903 50.845051 57.631882 58.798851 54.214859 45.252396 53.173100 60.676296 51.610306 48.327072 48.665054 57.498211 60.575420 56.235191 55.821926 50.149158 54.687958 54.876934 68.403702 54.426426 57.148487 50.972775 55.777893 57.739861 49.374588 60.091690 61.654640 44.813805 53.852825 49.350540 55.452408 57.879612 56.231571 58.288486 60.909355 56.742092 46.349400 49.970318 52.340279 58.102623 42.165989 46.539661 55.340965 58.716591 45.499783 63.265789 50.397827 56.348335 36.997604 55.138264 64.561218 48.286850 50.137665 54.105148 56.188057 56.410557 56.937481 57.457584 52.639477 52.162365 50.299088 51.296169 57.322754 57.253452 56.686966 49.126980 68.012451 51.407616 53.223686 54.526836 57.171185 48.274143 52.280510 48.329514 57.422314 48.402870 67.794479 54.499920 56.219738 54.152721 59.116394 48.177814 54.342766 49.694096 56.199654 52.191109 62.695820 68.961014 46.205765 55.854019 59.791821 65.968369 54.767250 59.612160 46.888706 53.199352 59.261024 62.366516 53.202042 47.731289 58.332905 61.729832 58.906525 41.184231 52.591335 50.858997 57.826385 52.089207 60.583515 49.510010 48.743832 41.453785 57.112896 56.088940 48.759598 48.372890 65.006851 50.312298 43.938831 55.894642 65.616760 49.088192 69.259689 59.412552 58.518291 56.458683 55.874779 50.890141 63.698742 57.638199 51.932240 67.380592 67.777893 56.703846 53.334457 54.916229 49.568798 49.959831 57.166252 56.761955 55.689754 55.394199 43.323475 57.699066 51.709595 60.318596 61.273327 51.351192 52.253422 53.433395 53.981880 61.181576 46.074974 58.089798 62.275925 51.635639 57.373516 52.744698 59.351631 50.053787 54.678925 58.140141 56.273445 43.011314 52.834293 57.149090 49.031601 58.650841 54.746483 56.522720 42.542812 61.747215 55.071117 65.333229 54.979504 54.260609 51.298820 56.071404 59.131489 41.475246 56.509220 53.868065 49.784382 56.326172 51.782875 52.213421 53.533913 56.082897 65.012703 48.755383 47.916512 51.202129 60.992989 57.983437 53.775066 45.481899 49.374386 41.389275 69.974876 66.322701 54.597454 52.585079 64.474945 45.443016 57.447617 57.371021 54.356735 49.030666 55.862720 55.880512 59.427837 54.613777 55.620289 62.613560 53.135292 50.136349 58.125206 57.875099 55.035603 56.859463 55.482166 50.215485 49.516872 54.140041 58.282043 56.394081 56.308517 54.580177 45.601040 50.742901 53.304459 57.340782 60.780800 61.711491 61.602726 55.454273 41.776703 55.674271 51.066597 53.631287 48.166088 54.546619 60.295105 50.673019 53.469086 64.057755 53.129856 49.727928 52.883667 51.578011 35.907681 57.968102 57.804424 40.618870 54.751137 57.285740 59.091534 58.544697 56.513317 52.306614 47.454189 47.128437 55.280838 56.738140 57.151382 53.972759 56.724991 52.237888 53.087761 55.116364 63.968033 63.591579 45.995663 69.821655 48.931606 51.396946 57.731915 55.723751 65.329376 50.017986 37.796776 69.437500 57.062359 61.645878 59.012447 61.785831 58.807194 55.638645 60.942593 57.241570 56.593609 68.896637 69.665886 58.102478 54.880527 49.297081 55.262524 55.773014 48.007481 57.334927 48.325157 50.822636 55.504295 58.450863 58.030472 52.911980 43.443806 47.080059 52.258801 62.852505 53.185135 52.693481 52.944668 57.847424 53.298714 43.604870 57.816200 56.322227 44.121357 49.811089 53.839462 59.712818 52.773010 56.110542 58.916454 53.670208 48.517471 55.333572 50.963581 51.402565 61.110348 46.543030 53.509148 51.457191 54.435822 64.273705 55.766270 59.066235 45.710617 43.276672 67.125053 49.776096 59.936928 58.333935 55.218536 55.060196 57.408417 67.613472 55.915688 50.310188 60.615978 79.035049 54.548641 53.699669 59.906620 41.242088 54.474518 51.974693 63.716534 59.108681 62.688259 57.884117 46.756767 61.297165 59.364819 56.541229 54.811550 47.426559 44.948368 57.057690 53.603714 51.599972 53.192516 54.457191 63.973431 47.902126 55.418537 58.092823 58.569180 63.360207 53.409039 48.166805 55.357010 53.847752 58.380527 58.126842 39.453320 55.373837 45.002979 56.238937 52.163139 54.101501 56.644199 58.094704 62.709850 57.203091 50.775314 51.761887 53.558208 53.416336 60.350971 61.656433 52.301735 50.293404 51.205433 57.593872 47.496674 49.812618 52.459743 52.407784 56.343529 47.303928 45.979435 44.409309 61.003754 55.038177 68.581970 71.151337 56.066429 50.794559 49.964115 59.449982 57.482311 60.047611 52.382687 48.488499 54.102177 46.165371 48.388519 55.145668 54.851646 55.826157 60.882328 54.298851 57.178242 55.269958 56.535526 50.708054 55.543217 60.522346 61.370975 59.432121 69.985519 43.742199 58.236095 61.220482 67.840561 56.817112 51.230778 59.965675 53.743649 53.079060 48.233444 61.327442 44.793499 68.482178 58.860439 51.262997 56.456261 55.207497 62.467545 52.300251 53.086456 63.242893 64.468887 43.216000 54.239918 57.860542 52.269032 65.106857 52.012070 48.695671 52.302670 51.406357 53.809059 49.960613 50.670692 56.911926 59.784561 53.281620 76.566872 51.570755 56.768936 49.931450 58.067997 55.866814 49.727867 55.876541 62.146694 58.436928 54.041107 61.078522 57.306831 55.377182 68.632202 47.313278 50.033482 54.459202 63.925934 45.598984 50.460186 48.399864 56.704685 38.739655 45.021564 54.002060 54.791428 49.291096 69.228798 57.723049 60.823307 58.167732 55.783627 57.436356 48.487419 54.262840 48.771076 61.391762 53.312080 49.444241 50.348892 50.656738 56.708363 51.503136 48.203159 56.518696 56.644836 56.929863 55.815067 51.715206 41.567471 60.305382 46.363407 53.392056 57.456116 52.107670 62.016590 49.856350 66.653999 60.126255 51.128551 50.863022 53.909069 53.211220 52.617001 59.449261 60.572773 53.829769 53.050499 51.495804 49.663982 52.854141 56.772232 54.683460 45.381104 48.626236 49.824047 48.293411 57.745365 54.587578 49.516544 48.718399 59.231037 49.902729 43.930920 51.873924 52.729801 53.587837 62.086468 47.867104 53.676792 49.187748 49.185646 49.118126 50.884007 56.731564 55.657181 58.336796 56.851044 48.993408 62.527695 52.040447 65.462975 44.635704 51.434460 62.164783 63.645264 70.009575 48.147278 56.202145 56.392105 52.073795 47.983089 53.521332 62.308048 60.969234 50.798523 56.572533 64.181717 42.554634 55.103302 61.706112 56.532799 48.560936 58.916382 58.053505 58.634098 53.170204 55.496956 52.832047 59.909679 62.003300 48.541878 48.294460 50.658867 61.465839 45.225563 55.536301 58.788635 44.195263 49.198837 57.010544 50.535091 53.252499 37.768639 54.209595 56.469044 52.744999 47.998554 51.699966 66.759140 43.619526 63.026016 49.821091 55.186501 56.838310 62.055450 57.902065 51.562340 62.601913 58.444263 43.916515 51.535824 58.483044 54.440048 55.601414 61.310917 57.204105 51.244217 53.200569 52.007248 54.725281 49.940300 47.457298 60.480953 62.723179 59.012878 51.161812 62.085625 58.224670 50.675686 65.109749 60.355270 47.302216 58.139969 61.303001 50.101925 50.576221 59.835030 48.139561 54.677803 56.885853 68.171913 60.020184 56.268742 52.763599 54.691566 57.412815 59.176815 56.328938 44.420128 60.399879 52.413467 73.023750 51.974285 37.191017 55.556667 47.223557 64.495346 58.318413 53.066391 59.483112 55.623600 57.944740 47.174126 57.426971 51.830997 55.552292 60.167931 59.410645 58.801636 53.577240 49.039307 58.112644 50.470913 59.639957 62.557823 55.461525 46.490284 55.939770 69.713066 52.859196 47.295914 64.294083 54.378742 70.410248 50.941494 59.843834 40.057198 57.289394 60.607407 55.035023 55.334278 62.145000 57.707417 58.827255 56.822392 54.637573 50.509232 44.715778 53.372395 53.044792 45.507454 54.538742 65.477875 55.319511 52.354916 59.304585 44.931881 44.713417 50.649231 42.193733 68.457825 63.208920 48.727085 54.539146 56.454056 62.330517 56.284992 62.056549 50.888424 67.264961 58.671261 52.664848 51.905769 52.715919 60.223656 55.371155 57.458427 52.532387 53.147335 56.157829 57.599861 65.268227 57.459877 67.645393 53.324741 60.280155 51.781586 58.866364 65.435005 59.219261 61.446247 56.162041 60.257942 54.618786 62.018829 54.524311 52.944546 61.142559 53.184723 63.387177 53.976906 53.485184 53.148952 59.269951 63.334232 60.569225 59.689945 53.136009 54.612717 51.857113 51.094856 57.272182 55.597816 55.378868 46.975128 70.037285 56.586048 55.083477 51.999218 56.954376 55.118011 56.235882 56.066135 56.014618 55.698040 60.155930 52.477596 56.176987 42.557423 60.372086 60.150814 46.812786 70.609497 54.711926 55.646427 52.738159 48.723885 58.331993 51.769909 56.887047 45.008282 52.134842 53.996292 59.939632 52.826611 56.489723 59.105675 49.403561 52.121933 54.512318 57.162479 53.500851 59.021709 52.657913 51.438770 60.953186 53.310139 53.569241 54.917202 56.737095 55.186279 61.837151 55.102703 55.868267 46.454109 61.628246 57.163330 52.194054 55.539474 63.986526 52.310600 51.810547 60.515575 49.711575 55.457581 51.028202 51.218102 53.630367 44.589985 49.132046 61.165222 49.969822 57.512844 48.180973 53.688015 69.851532 47.483646 51.693768 50.600216 52.960228 52.287117 52.235897 53.375950 55.970722 46.773876 58.062561 51.331879 53.640709 53.133160 56.022064 60.658394 52.842583 51.527943 58.203453 59.771172 54.439789 46.735176 50.152367 53.988789 51.552757 59.340778 52.210793 56.266792 50.245716 49.137627 57.365643 55.929520 51.980328 55.037064 51.412357 60.088512 54.178764 38.430595 51.263592 50.617382 55.847416 57.354328 46.506187 53.872925 59.504799 59.402298 58.771721 62.211460 65.231636 50.332668 54.977573 50.887947 52.390324 48.755295 72.697617 55.459278 62.805233 47.728828 54.353279 44.704304 51.234413 51.485123 56.455044 52.134941 59.765583 52.022579 43.698036 59.236595 58.793194 44.562557 52.171906 61.447048 52.729946 60.263016 57.047050 59.068024 51.886120 39.322807 51.453655 55.530426 57.553921 48.562565 53.237610 53.457157 59.732811 54.195217 57.054501 49.451439 50.486027 48.423855 67.041916 65.370239 53.339039 51.954880 49.220402 57.160645 52.810192 52.826244 56.160717 65.565483 53.100998 53.643353 68.916397 43.633808 56.632023 56.007416 58.180553 50.927322 51.563324 48.494839 52.605042 62.771999 48.511086 71.867996 50.608177 60.698471 55.074974 53.842903 59.490150 46.866936 58.394634 43.177185 62.393673 49.063553 48.083324 63.651222 57.783218 44.049301 52.757324 55.944904 47.901001 56.797150 46.743263 56.247818 49.742615 56.862278 50.531479 54.230816 51.677734 60.690498 50.677837 48.113400 56.979610 66.490273 58.336788 46.864330 57.714161 60.447678 69.162201 41.575050 59.365005 60.025879 49.325306 62.534748 56.908562 57.654942 51.495106 53.606007 46.927395 51.672249 52.960278 60.847813 61.534851 53.128876 46.232777 58.548168 49.497055 56.685425 60.423988 55.526699 56.108727 51.692860 48.831890 54.947960 43.390118 64.775658 47.701775 60.476200 62.204872 43.350819 49.669910 51.211273 52.428936 66.709534 55.830685 51.366623 59.860062 50.088989 57.165436 55.284466 55.527294 50.709286 57.400059 54.678295 55.129192 53.609695 50.200958 55.137352 56.676563 53.432312 67.530075 53.253090 41.414574 53.098557 72.106567 67.581879 49.733925 55.410824 61.683083 57.206787 52.984501 48.713505 61.536884 57.840401 52.241577 49.677799 57.102890 54.013069 47.274639 45.327778 58.262314 49.150269 45.228806 47.028896 56.704807 51.979675 51.517204 59.331509 52.323914 61.044006 58.338840 48.353634 60.601181 54.320480 61.061893 54.643730 46.959347 61.649208 50.062115 52.830975 62.897976 60.134281 52.994167 49.724171 57.124580 46.942436 49.964401 60.294510 48.675823 58.400856 54.886082 56.263081 55.072655 52.869774 54.298996 51.047073 61.619942 51.801453 55.718052 57.199940 58.997643 52.348869 54.215820 56.624317 65.921005 48.389481 47.349781 56.767948 41.089531 55.946255 58.518200 52.610668 56.188679 52.148685 39.764416 59.767387 53.199272 62.043003 48.049492 48.306625 62.875168 54.462059 62.096382 51.302742 50.892151 55.430485 44.369946 42.258717 68.670601 50.314644 58.103119 61.727100 48.485603 58.951988 57.824574 48.157600 57.018761 52.862938 55.025101 50.076229 65.562653 42.202877 50.817421 53.168316 70.439743 57.869652 58.627090 61.503262 60.011990 46.372204 65.201546 45.952267 52.465778 50.352928 57.176502 53.813313 55.112888 55.442474 50.468884 62.010696 59.886578 61.012413 47.498898 47.270851 59.196484 57.003326 52.507999 65.551102 54.764793 56.963993 52.581505 53.502220 46.833321 45.378098 52.429012 52.587173 46.771030 44.870014 52.425098 51.777645 62.927074 63.544575 54.315144 54.603027 55.626137 49.663750 48.467674 53.367016 49.163704 69.235466 56.910740 60.885017 50.684723 52.199947 57.485134 45.906033 54.407848 57.768848 50.343685 54.369190 50.316986 51.469631 51.460533 46.797253 56.552311 42.200230 57.559959 56.163151 70.574821 57.167648 58.182022 57.871361 37.821487 60.279030 62.011421 69.585709 49.855591 54.280678 52.059425 55.770699 53.896854 53.801605 44.893795 62.693584 54.098743 68.683968 66.218468 54.492317 53.627243 48.648617 58.031559 42.907944 48.927849 46.917969 50.488182 51.271103 48.603466 57.311565 60.559784 70.446152 50.352802 47.600365 48.521000 45.348518 56.626266 51.773346 57.463745 49.395615 53.328979 55.311321 54.688557 49.859459 50.704124 50.184185 50.246212 48.841347 51.748497 50.344913 52.305599 55.564003 56.907181 50.820919 57.199238 58.248653 59.761654 62.450626 56.430271 58.963345 56.842903 55.784935 56.895687 48.997017 58.158463 50.767906 49.143288 58.181324 49.732128 43.106678 53.722309 63.834034 46.527637 61.017254 56.578178 43.249279 54.974323 53.155388 46.685009 54.298016 52.693172 63.549557 66.064171 54.392670 59.487118 58.128956 57.662281 66.393158 52.694790 64.443031 41.036098 49.166851 53.380375 55.409267 50.662632 57.145786 50.754017 52.845398 57.557652 60.385231 64.946121 55.410969 61.949543 50.824085 54.859627 57.675655 55.346630 58.278339 62.418209 64.598602 54.599773 58.626202 49.375519 44.417530 51.387653 54.674999 44.515434 55.468704 62.893810 50.412991 48.154522 57.015221 56.946064 44.968552 68.438774 59.973778 47.945740 61.669453 60.783615 52.941174 52.112461 58.429409 49.322830 49.920830 47.208153 62.847000 59.434986 46.731277 57.894779 52.445206 48.531807 44.203037 57.677998 69.866524 57.545502 55.222492 34.167233 56.129330 55.502403 53.121311 66.687485 46.251415 56.051098 44.708664 47.062019 45.570229 53.024982 53.771496 58.327610 58.593349 60.879795 70.210960 57.693840 47.773808 45.685791 65.994537 58.618904 49.101147 41.949135 54.737190 59.477692 47.639214 54.259895 66.266785 63.546986 62.951115 49.023407 51.653767 46.827602 60.364162 53.590782 51.469662 60.287815 54.417915 59.280983 55.347580 60.375019 66.388084 52.095409 52.288410 51.392834 56.330524 61.716808 50.802574 44.582127 52.514259 68.850349 59.552784 50.480774 53.876385 65.346436 57.681244 47.017437 54.082790 41.396191 66.741280 51.164062 53.396717 53.605984 48.388569 56.994972 62.997959 59.877575 46.541180 50.646965 62.398048 56.934784 57.836113 48.214058 49.418541 56.890705 52.875809 53.938564 51.575314 61.438404 55.861912 58.064053 44.417343 49.614239 54.497829 52.710056 59.291367 59.941574 49.353260 64.281181 44.052979 56.405529 43.088638 49.339527 56.452736 54.036411 54.582352 53.630909 52.882729 53.434547 57.316479 56.474094 60.033024 67.991920 53.024109 57.303493 47.888500 55.851357 55.697300 63.867592 49.403469 58.633900 48.695183 59.834221 52.225533 70.701729 52.866936 58.997944 53.215595 44.509640 59.400806 55.386234 56.512009 61.460335 43.337223 61.492290 48.441750 60.474945 57.388115 54.246304 55.257385 52.312107 58.051727 56.752876 54.668510 44.813965 54.060375 54.485447 49.103836 47.183544 56.825264 55.511536 64.193771 47.951416 55.977085 54.905235 58.808037 56.976318 58.259426 59.162815 51.882660 58.982719 49.072186 56.568470 55.349449 54.679821 